unsigned char model_health[] = {
  0x1c, 0x00, 0x00, 0x00, 0x54, 0x46, 0x4c, 0x33, 0x14, 0x00, 0x20, 0x00,
  0x1c, 0x00, 0x18, 0x00, 0x14, 0x00, 0x10, 0x00, 0x0c, 0x00, 0x00, 0x00,
  0x08, 0x00, 0x04, 0x00, 0x14, 0x00, 0x00, 0x00, 0x1c, 0x00, 0x00, 0x00,
  0x98, 0x00, 0x00, 0x00, 0xf0, 0x00, 0x00, 0x00, 0x84, 0x2c, 0x00, 0x00,
  0x94, 0x2c, 0x00, 0x00, 0x10, 0x34, 0x00, 0x00, 0x03, 0x00, 0x00, 0x00,
  0x01, 0x00, 0x00, 0x00, 0x10, 0x00, 0x00, 0x00, 0x00, 0x00, 0x0a, 0x00,
  0x10, 0x00, 0x0c, 0x00, 0x08, 0x00, 0x04, 0x00, 0x0a, 0x00, 0x00, 0x00,
  0x0c, 0x00, 0x00, 0x00, 0x1c, 0x00, 0x00, 0x00, 0x3c, 0x00, 0x00, 0x00,
  0x0f, 0x00, 0x00, 0x00, 0x73, 0x65, 0x72, 0x76, 0x69, 0x6e, 0x67, 0x5f,
  0x64, 0x65, 0x66, 0x61, 0x75, 0x6c, 0x74, 0x00, 0x01, 0x00, 0x00, 0x00,
  0x04, 0x00, 0x00, 0x00, 0x90, 0xff, 0xff, 0xff, 0x0e, 0x00, 0x00, 0x00,
  0x04, 0x00, 0x00, 0x00, 0x08, 0x00, 0x00, 0x00, 0x6f, 0x75, 0x74, 0x70,
  0x75, 0x74, 0x5f, 0x30, 0x00, 0x00, 0x00, 0x00, 0x01, 0x00, 0x00, 0x00,
  0x04, 0x00, 0x00, 0x00, 0x6a, 0xd3, 0xff, 0xff, 0x04, 0x00, 0x00, 0x00,
  0x0c, 0x00, 0x00, 0x00, 0x68, 0x65, 0x61, 0x6c, 0x74, 0x68, 0x5f, 0x69,
  0x6e, 0x70, 0x75, 0x74, 0x00, 0x00, 0x00, 0x00, 0x02, 0x00, 0x00, 0x00,
  0x34, 0x00, 0x00, 0x00, 0x04, 0x00, 0x00, 0x00, 0xdc, 0xff, 0xff, 0xff,
  0x11, 0x00, 0x00, 0x00, 0x04, 0x00, 0x00, 0x00, 0x13, 0x00, 0x00, 0x00,
  0x43, 0x4f, 0x4e, 0x56, 0x45, 0x52, 0x53, 0x49, 0x4f, 0x4e, 0x5f, 0x4d,
  0x45, 0x54, 0x41, 0x44, 0x41, 0x54, 0x41, 0x00, 0x08, 0x00, 0x0c, 0x00,
  0x08, 0x00, 0x04, 0x00, 0x08, 0x00, 0x00, 0x00, 0x10, 0x00, 0x00, 0x00,
  0x04, 0x00, 0x00, 0x00, 0x13, 0x00, 0x00, 0x00, 0x6d, 0x69, 0x6e, 0x5f,
  0x72, 0x75, 0x6e, 0x74, 0x69, 0x6d, 0x65, 0x5f, 0x76, 0x65, 0x72, 0x73,
  0x69, 0x6f, 0x6e, 0x00, 0x12, 0x00, 0x00, 0x00, 0x90, 0x2b, 0x00, 0x00,
  0x88, 0x2b, 0x00, 0x00, 0xf8, 0x2a, 0x00, 0x00, 0xe8, 0x29, 0x00, 0x00,
  0xcc, 0x29, 0x00, 0x00, 0x3c, 0x28, 0x00, 0x00, 0x2c, 0x08, 0x00, 0x00,
  0x1c, 0x01, 0x00, 0x00, 0xf0, 0x00, 0x00, 0x00, 0xc4, 0x00, 0x00, 0x00,
  0xbc, 0x00, 0x00, 0x00, 0xb4, 0x00, 0x00, 0x00, 0xac, 0x00, 0x00, 0x00,
  0xa4, 0x00, 0x00, 0x00, 0x9c, 0x00, 0x00, 0x00, 0x94, 0x00, 0x00, 0x00,
  0x74, 0x00, 0x00, 0x00, 0x04, 0x00, 0x00, 0x00, 0x2e, 0xd4, 0xff, 0xff,
  0x04, 0x00, 0x00, 0x00, 0x60, 0x00, 0x00, 0x00, 0x10, 0x00, 0x00, 0x00,
  0x00, 0x00, 0x00, 0x00, 0x08, 0x00, 0x0e, 0x00, 0x08, 0x00, 0x04, 0x00,
  0x08, 0x00, 0x00, 0x00, 0x10, 0x00, 0x00, 0x00, 0x24, 0x00, 0x00, 0x00,
  0x00, 0x00, 0x06, 0x00, 0x08, 0x00, 0x04, 0x00, 0x06, 0x00, 0x00, 0x00,
  0x04, 0x00, 0x00, 0x00, 0x00, 0x00, 0x00, 0x00, 0x0c, 0x00, 0x18, 0x00,
  0x14, 0x00, 0x10, 0x00, 0x0c, 0x00, 0x04, 0x00, 0x0c, 0x00, 0x00, 0x00,
  0x16, 0xd2, 0x72, 0x8c, 0x76, 0xac, 0x37, 0xb2, 0x02, 0x00, 0x00, 0x00,
  0x02, 0x00, 0x00, 0x00, 0x04, 0x00, 0x00, 0x00, 0x06, 0x00, 0x00, 0x00,
  0x32, 0x2e, 0x32, 0x30, 0x2e, 0x30, 0x00, 0x00, 0x9a, 0xd4, 0xff, 0xff,
  0x04, 0x00, 0x00, 0x00, 0x10, 0x00, 0x00, 0x00, 0x31, 0x2e, 0x36, 0x2e,
  0x30, 0x00, 0x00, 0x00, 0x00, 0x00, 0x00, 0x00, 0x00, 0x00, 0x00, 0x00,
  0xe0, 0xcd, 0xff, 0xff, 0xe4, 0xcd, 0xff, 0xff, 0xe8, 0xcd, 0xff, 0xff,
  0xec, 0xcd, 0xff, 0xff, 0xf0, 0xcd, 0xff, 0xff, 0xf4, 0xcd, 0xff, 0xff,
  0xce, 0xd4, 0xff, 0xff, 0x04, 0x00, 0x00, 0x00, 0x1c, 0x00, 0x00, 0x00,
  0xb4, 0x31, 0xc8, 0x41, 0xca, 0xb8, 0xbf, 0x41, 0x0a, 0x89, 0x5b, 0x42,
  0x7c, 0x60, 0x19, 0x44, 0x3d, 0x69, 0xf3, 0x41, 0x5f, 0xd8, 0xf0, 0x41,
  0x4a, 0x4e, 0xf2, 0x41, 0xf6, 0xd4, 0xff, 0xff, 0x04, 0x00, 0x00, 0x00,
  0x1c, 0x00, 0x00, 0x00, 0x99, 0x27, 0xe9, 0x3d, 0xc4, 0xda, 0x97, 0x3e,
  0xcd, 0x81, 0xeb, 0x3d, 0x0f, 0x80, 0x8e, 0x3b, 0xe5, 0xcf, 0xb2, 0x3d,
  0xaa, 0xe3, 0xb4, 0x3d, 0x8b, 0xa6, 0xaf, 0x3d, 0x1e, 0xd5, 0xff, 0xff,
  0x04, 0x00, 0x00, 0x00, 0x00, 0x07, 0x00, 0x00, 0xb1, 0x8e, 0x7f, 0x3e,
  0x3b, 0x15, 0xdb, 0xbe, 0x59, 0x2f, 0x88, 0x3e, 0x02, 0x47, 0x32, 0x3e,
  0x93, 0x14, 0x8f, 0x3e, 0x38, 0x8d, 0x81, 0xbc, 0x0b, 0xc7, 0x47, 0xbd,
  0x85, 0x34, 0x52, 0xbe, 0x27, 0x7e, 0x01, 0x3d, 0x22, 0x33, 0x4e, 0xbd,
  0xbb, 0xdf, 0x0d, 0x3e, 0xaf, 0x8f, 0x8d, 0xbe, 0xd8, 0x7d, 0x93, 0x3d,
  0xb4, 0x73, 0xac, 0x3e, 0x1e, 0x5c, 0x9d, 0xbe, 0xe2, 0xc0, 0x22, 0xbe,
  0x1b, 0x8e, 0x67, 0x3e, 0xe5, 0x9e, 0x3d, 0xbe, 0x7d, 0xda, 0x13, 0xbe,
  0x8c, 0x33, 0xbf, 0x3d, 0x27, 0xf7, 0xbd, 0x3e, 0xb6, 0xef, 0x84, 0xbe,
  0x9c, 0x15, 0xff, 0xbe, 0xad, 0x7b, 0x9b, 0x3e, 0x3f, 0x0e, 0xd0, 0xbe,
  0x3e, 0xd2, 0xe4, 0x3d, 0x2e, 0x72, 0x66, 0xbe, 0x77, 0xa3, 0x2f, 0x3d,
  0xc0, 0xe5, 0x01, 0xbf, 0x9d, 0x64, 0x07, 0xbe, 0xab, 0xce, 0x2a, 0x3e,
  0xdd, 0x4e, 0x10, 0xbd, 0x4a, 0x24, 0x9c, 0xbd, 0xf5, 0xbb, 0xf8, 0x3d,
  0xa0, 0x10, 0x5c, 0x3e, 0xd3, 0x5b, 0xf4, 0xbe, 0x94, 0x97, 0xbd, 0x3d,
  0x1f, 0xe0, 0xe1, 0xbc, 0x35, 0x32, 0x86, 0xbc, 0x18, 0xce, 0x9f, 0x3e,
  0xaf, 0xb6, 0x6c, 0x3d, 0xf6, 0x60, 0x39, 0xbe, 0x9e, 0xdc, 0xbe, 0x3d,
  0xb3, 0x61, 0x6e, 0x3e, 0x2d, 0xa3, 0x92, 0xbe, 0x54, 0xef, 0x2c, 0xbe,
  0x4e, 0x02, 0x0c, 0x3e, 0x69, 0xcb, 0x94, 0x3e, 0xda, 0x10, 0x94, 0xbe,
  0x3f, 0x2e, 0x40, 0x3d, 0x46, 0x97, 0x33, 0xbe, 0x52, 0xba, 0x9c, 0x3e,
  0x99, 0x6c, 0xa8, 0xbe, 0x6d, 0x87, 0xcf, 0xbd, 0x07, 0xd6, 0x05, 0x3e,
  0x0b, 0x96, 0xa0, 0x3c, 0x59, 0xcc, 0x1b, 0xbf, 0x22, 0xbd, 0xf9, 0x3d,
  0x89, 0x69, 0xf1, 0xbc, 0xf6, 0x4e, 0x65, 0xbc, 0x2d, 0x7a, 0x8b, 0x3e,
  0x86, 0x9b, 0x5e, 0xbe, 0xfd, 0x71, 0x1f, 0x3e, 0xea, 0xb8, 0xff, 0xbe,
  0x65, 0xfe, 0x5c, 0xbd, 0xd0, 0x87, 0xef, 0xbd, 0x90, 0x32, 0xc2, 0x3d,
  0xaf, 0xe1, 0x2b, 0x3e, 0xf3, 0xbb, 0x20, 0x3e, 0x7e, 0x9a, 0xba, 0x3c,
  0x1a, 0x2b, 0xe5, 0xbe, 0x09, 0xfd, 0x7c, 0x3d, 0x3b, 0x34, 0x9b, 0xbe,
  0x14, 0xad, 0x17, 0xbe, 0x9a, 0x4f, 0x07, 0x3f, 0xaf, 0x6f, 0x2e, 0x3c,
  0x41, 0x22, 0x52, 0xbe, 0x85, 0x46, 0xce, 0xbe, 0x12, 0xdd, 0x48, 0xbd,
  0xd4, 0x98, 0x24, 0x3e, 0xde, 0x9c, 0xcc, 0x3e, 0xfe, 0xe7, 0x34, 0xbd,
  0xdb, 0x03, 0x89, 0xbd, 0x1c, 0x92, 0x41, 0x3e, 0x3e, 0x68, 0x01, 0x3e,
  0xed, 0xfb, 0x7c, 0xbe, 0xc0, 0x1c, 0x3d, 0x3e, 0xb0, 0x27, 0x52, 0x3e,
  0x6d, 0x00, 0x50, 0x3e, 0x38, 0xfa, 0xb3, 0xbe, 0x10, 0x73, 0x3a, 0xbe,
  0xbf, 0xde, 0x14, 0x3f, 0x63, 0x8e, 0x22, 0xbd, 0x67, 0x1d, 0x55, 0x3d,
  0x1a, 0x69, 0x12, 0xbe, 0x68, 0xc8, 0xb7, 0xbe, 0x06, 0xf5, 0x1b, 0xbe,
  0xdc, 0xc3, 0x79, 0x3e, 0x6a, 0x30, 0xcc, 0xbe, 0x07, 0x88, 0x14, 0x3e,
  0x9b, 0xc1, 0x04, 0xbe, 0x5f, 0xa4, 0xc9, 0xbc, 0x24, 0x07, 0xbc, 0x3e,
  0xa3, 0x18, 0x64, 0xbd, 0x4e, 0x30, 0x34, 0xbc, 0xcb, 0x51, 0xa8, 0x3e,
  0xfd, 0x60, 0x46, 0x3e, 0xc9, 0x8e, 0xeb, 0xbd, 0xfe, 0x00, 0x9a, 0xbe,
  0x10, 0x9c, 0xe1, 0x3d, 0xe9, 0x97, 0x23, 0xbe, 0x09, 0x0c, 0x75, 0x3e,
  0x4c, 0x97, 0x21, 0x3d, 0x70, 0x68, 0xf0, 0xbe, 0xe5, 0x4a, 0x24, 0xbe,
  0x3c, 0x4f, 0x79, 0xbe, 0x6a, 0xaa, 0x11, 0xbd, 0x40, 0x6f, 0x6c, 0x3d,
  0x5a, 0x24, 0x01, 0xbf, 0xbf, 0x05, 0x31, 0x3e, 0x46, 0xdf, 0xc5, 0xbe,
  0x3c, 0xa4, 0x2a, 0xbe, 0x71, 0x04, 0x92, 0xbd, 0xd4, 0xe0, 0xcb, 0x3e,
  0x0b, 0x70, 0x24, 0x3e, 0x76, 0x8e, 0xbe, 0x3e, 0x9a, 0xe6, 0x08, 0xbf,
  0xf3, 0x21, 0x16, 0xbd, 0xd4, 0x42, 0x50, 0x3e, 0x90, 0x9f, 0x71, 0xbd,
  0xb0, 0xa4, 0x36, 0xbb, 0x87, 0x8d, 0xac, 0xbd, 0xeb, 0xa9, 0x38, 0xbe,
  0x69, 0x7b, 0x89, 0x3e, 0xd8, 0x0a, 0xf2, 0x3d, 0xd8, 0x89, 0x23, 0x3e,
  0x62, 0x55, 0xb3, 0xbe, 0x14, 0x68, 0xd0, 0x3e, 0xc4, 0x94, 0xca, 0x3d,
  0x16, 0x7c, 0x0e, 0x3e, 0xc4, 0x5e, 0x4f, 0x3e, 0xc5, 0xe5, 0xc2, 0x3d,
  0x82, 0x9b, 0x0a, 0x3e, 0xc6, 0x59, 0xa3, 0xbe, 0x2c, 0x59, 0xc8, 0xbe,
  0x13, 0x54, 0x4f, 0xbe, 0xfc, 0x99, 0xec, 0xbd, 0xbd, 0x30, 0xee, 0xbe,
  0xb4, 0x5f, 0x2e, 0x39, 0x18, 0x21, 0x1c, 0xbe, 0x22, 0x7f, 0xf8, 0xbd,
  0x67, 0x24, 0xa8, 0x3d, 0xee, 0x0c, 0x46, 0x3e, 0x84, 0x49, 0x61, 0xbe,
  0x8d, 0x7a, 0xc6, 0x3e, 0x18, 0x08, 0xb6, 0x3d, 0x46, 0xb6, 0x22, 0xbe,
  0x7f, 0x8a, 0x4c, 0x3e, 0x6a, 0xca, 0x85, 0x3e, 0x84, 0x13, 0x1b, 0x3e,
  0x89, 0xbf, 0xa7, 0xbe, 0xdb, 0xf7, 0x85, 0xbe, 0x59, 0x58, 0x14, 0xbe,
  0x2a, 0xc8, 0xdb, 0x3a, 0xe4, 0x82, 0x9a, 0x3e, 0x33, 0x20, 0xc1, 0x3d,
  0x21, 0x20, 0x8a, 0x3e, 0x57, 0xe3, 0x95, 0xbc, 0x86, 0xc3, 0x03, 0x3f,
  0x20, 0xfd, 0x8c, 0x3d, 0xec, 0xbd, 0x39, 0x3e, 0x05, 0x19, 0xeb, 0x3d,
  0xfa, 0xe3, 0x03, 0xbf, 0x08, 0x22, 0x2f, 0xbe, 0xa8, 0x3a, 0x08, 0xbd,
  0x5d, 0x9a, 0x1c, 0xbf, 0x8b, 0xfe, 0xba, 0x3d, 0x44, 0xc8, 0xae, 0xbd,
  0x21, 0x7d, 0xf7, 0xbc, 0x9f, 0x83, 0x07, 0x3e, 0x1e, 0xf1, 0x3f, 0xbe,
  0x7a, 0x7b, 0x0a, 0x3c, 0xd9, 0x65, 0x02, 0xbc, 0x5d, 0x11, 0xb6, 0xba,
  0xcd, 0x0c, 0x2e, 0x3e, 0xdf, 0x2b, 0x43, 0x3e, 0xab, 0x29, 0x6b, 0x3d,
  0x1a, 0xa1, 0x61, 0x3c, 0xcf, 0x57, 0x52, 0xbe, 0x45, 0xa1, 0x99, 0xbe,
  0xdf, 0x33, 0x2c, 0x3e, 0x89, 0x03, 0x4d, 0x3e, 0xb7, 0xe7, 0xbe, 0x3e,
  0x7c, 0x38, 0xf8, 0x3d, 0x6a, 0xd9, 0x49, 0x3e, 0xf5, 0x99, 0x1f, 0xbe,
  0xd9, 0x0f, 0x5c, 0x3e, 0x37, 0xb9, 0x43, 0x3e, 0x6d, 0x74, 0x1e, 0x3e,
  0x6c, 0x5b, 0x3c, 0x3e, 0xe2, 0x28, 0x76, 0x3d, 0x28, 0x47, 0xba, 0x3d,
  0xc4, 0x9e, 0x95, 0x3e, 0xe9, 0x6b, 0xaf, 0x3e, 0x11, 0xba, 0x09, 0xbe,
  0xdf, 0xa6, 0x97, 0x3d, 0x35, 0xf1, 0x92, 0xbe, 0xf2, 0x35, 0x8a, 0x3e,
  0xa6, 0xa2, 0x91, 0xbe, 0x39, 0x8f, 0x1f, 0x3d, 0x17, 0x60, 0x2f, 0x3e,
  0x4c, 0x3d, 0xdd, 0xbd, 0xdd, 0x80, 0xb0, 0x3c, 0x67, 0x45, 0x9a, 0x3e,
  0xa6, 0x53, 0x7a, 0x3e, 0xe9, 0x10, 0x4f, 0x3e, 0x68, 0xc5, 0x44, 0x3e,
  0x04, 0xad, 0x21, 0xbf, 0x20, 0x7b, 0xd5, 0x3d, 0x5d, 0xed, 0xe9, 0xbc,
  0xd7, 0xdd, 0x01, 0x3e, 0xfb, 0x1c, 0x7c, 0x3e, 0xfc, 0xf6, 0xdf, 0x3b,
  0x59, 0x16, 0xd7, 0xbc, 0x27, 0xd8, 0x35, 0xbe, 0xd7, 0x8f, 0x82, 0x3c,
  0x58, 0xfb, 0x00, 0xbe, 0xf9, 0x0c, 0x91, 0xbe, 0xc3, 0x33, 0xf9, 0x3d,
  0x18, 0xb7, 0x18, 0x3e, 0x25, 0x65, 0x0e, 0xbd, 0x28, 0xd5, 0xbe, 0x3e,
  0x7d, 0x47, 0x86, 0x3e, 0x1d, 0x85, 0xd6, 0xbd, 0x92, 0xca, 0x96, 0x3d,
  0xf1, 0xc8, 0x9a, 0x3e, 0xae, 0x1e, 0xaf, 0xbe, 0x06, 0xda, 0x61, 0x3e,
  0x90, 0x4f, 0x88, 0xbe, 0x31, 0x78, 0xdd, 0xbc, 0x2f, 0xf5, 0x40, 0x3e,
  0x43, 0xef, 0x1b, 0x3e, 0xca, 0xb3, 0x9d, 0xbe, 0x9a, 0xd8, 0x7d, 0xbe,
  0x26, 0x3c, 0x92, 0xbe, 0x96, 0x4e, 0x3a, 0x3e, 0x81, 0xc1, 0xf2, 0x3d,
  0x81, 0xbb, 0x2a, 0xbe, 0x7b, 0x37, 0x9f, 0xbe, 0xeb, 0xae, 0xf8, 0xbc,
  0x96, 0xeb, 0x8a, 0xbe, 0x29, 0x2d, 0xc6, 0x3d, 0x43, 0xe0, 0x5b, 0x3e,
  0x66, 0x07, 0x9f, 0x3e, 0xe2, 0x3c, 0xe9, 0x3d, 0x39, 0x73, 0x95, 0x3e,
  0x89, 0xc9, 0xa3, 0x3e, 0xc9, 0xf0, 0x8b, 0x3e, 0xca, 0xa3, 0xb6, 0x3d,
  0x32, 0xd2, 0x5a, 0x3e, 0x9f, 0xfb, 0x07, 0xbc, 0x9d, 0xa7, 0x7f, 0x3a,
  0x25, 0xf8, 0x87, 0x3e, 0x6a, 0x95, 0x2c, 0xbf, 0x4a, 0x6e, 0x7d, 0x3d,
  0x21, 0x63, 0x59, 0x3d, 0xb6, 0xe8, 0x99, 0xbd, 0x0e, 0xcb, 0x9f, 0x3e,
  0xf4, 0xff, 0x8f, 0xbe, 0x89, 0xef, 0x22, 0xbd, 0x8c, 0xb8, 0xd8, 0xbd,
  0xde, 0x12, 0x8e, 0xbe, 0xa8, 0x7c, 0x75, 0xbe, 0xbf, 0xcb, 0x00, 0x3e,
  0xfd, 0xc8, 0xfd, 0x3d, 0xee, 0x48, 0xaf, 0xbd, 0x93, 0x56, 0x1c, 0x3d,
  0x01, 0xba, 0x84, 0xbc, 0x1e, 0x79, 0x42, 0xbe, 0xcd, 0xc9, 0xd0, 0x3e,
  0xc8, 0x04, 0x96, 0x3d, 0xaa, 0x12, 0xab, 0xbe, 0xd6, 0x37, 0x13, 0xbd,
  0x6a, 0x49, 0x5b, 0xbe, 0x7e, 0x91, 0x0d, 0xbf, 0x5a, 0x18, 0x19, 0xbd,
  0xac, 0x02, 0x89, 0xbe, 0x1f, 0x9a, 0xeb, 0xbe, 0xc2, 0x9e, 0xd3, 0xbd,
  0xff, 0x2a, 0xf5, 0x3d, 0xbd, 0x18, 0x83, 0xbb, 0xb5, 0xf2, 0xe3, 0x3e,
  0xf0, 0x1a, 0x89, 0xbd, 0x25, 0xf7, 0x95, 0xbb, 0x42, 0x25, 0xda, 0x3e,
  0x2b, 0xdf, 0x36, 0x3e, 0x91, 0x29, 0xa6, 0xbe, 0xd1, 0x2a, 0x91, 0x3e,
  0x4b, 0x1a, 0xb0, 0x3e, 0x71, 0x48, 0xb0, 0xbe, 0x57, 0xbc, 0x84, 0x3d,
  0x8e, 0x43, 0x17, 0xbf, 0xd9, 0xdd, 0x2c, 0x3e, 0x7f, 0x78, 0x61, 0x3e,
  0xea, 0x0e, 0xa4, 0xbc, 0x00, 0xbc, 0x5f, 0x3e, 0x0a, 0x73, 0x6c, 0x3d,
  0x93, 0xdf, 0x06, 0xbd, 0x69, 0xdd, 0xc8, 0xbe, 0xf0, 0x46, 0x34, 0x3e,
  0x50, 0xdc, 0x56, 0xbd, 0x21, 0x0d, 0xb2, 0x3e, 0xd3, 0x1f, 0xdb, 0xbd,
  0x37, 0xd1, 0x1e, 0xbe, 0x88, 0x29, 0xe9, 0xbd, 0x0e, 0xe2, 0x25, 0x3e,
  0x38, 0x1d, 0x6e, 0xbe, 0x2f, 0xb9, 0xa5, 0x3d, 0x6c, 0x6c, 0x44, 0x3e,
  0x7f, 0x1b, 0x0f, 0x3e, 0xd6, 0x5e, 0x85, 0xbe, 0xbb, 0x8c, 0x9c, 0xbc,
  0x6f, 0xc5, 0xb9, 0x3d, 0xba, 0x52, 0x56, 0x3e, 0x5c, 0xe4, 0xbd, 0xbe,
  0x90, 0x9d, 0x89, 0xbe, 0x71, 0x82, 0xd7, 0x3d, 0x73, 0x8c, 0x2a, 0xbe,
  0x2a, 0xab, 0x0c, 0xbe, 0x5b, 0x65, 0xbc, 0xbe, 0xc3, 0xdb, 0x68, 0x3e,
  0x25, 0x19, 0x95, 0xbe, 0xe7, 0x54, 0x81, 0x3e, 0x97, 0xe6, 0xee, 0xbe,
  0xbb, 0x7b, 0x84, 0xbd, 0x12, 0xc5, 0x24, 0xbe, 0xe5, 0x32, 0x6f, 0x3e,
  0x1c, 0x93, 0xa1, 0xbd, 0xac, 0x84, 0x73, 0x3e, 0x5f, 0x8e, 0xcd, 0x3c,
  0x9e, 0x4d, 0x0d, 0x3e, 0xd0, 0x04, 0x95, 0xbe, 0xf0, 0x22, 0x59, 0x3e,
  0x53, 0x98, 0x22, 0x3e, 0x67, 0xb6, 0xf4, 0x3e, 0xd8, 0x3c, 0x9f, 0x3e,
  0x7a, 0xf2, 0x1d, 0x3c, 0xd1, 0x81, 0x93, 0xbe, 0xa1, 0x97, 0xd8, 0xbc,
  0x7c, 0x94, 0x51, 0xbc, 0x00, 0x46, 0x14, 0xbf, 0x3d, 0xd7, 0x96, 0x3d,
  0xfb, 0x8b, 0x2c, 0x3e, 0x52, 0x1b, 0x64, 0x3c, 0x5a, 0xb8, 0x9f, 0x3e,
  0xa5, 0xee, 0x4a, 0xbe, 0xf6, 0x41, 0x05, 0xbe, 0xed, 0x02, 0x15, 0xbf,
  0x01, 0xc8, 0xe5, 0x3d, 0xf4, 0x24, 0xa9, 0xbe, 0x51, 0xfa, 0x9d, 0xbd,
  0xc4, 0x33, 0x03, 0x3f, 0xf8, 0x0b, 0x24, 0xbe, 0xc2, 0x20, 0x01, 0xbd,
  0xfb, 0x3c, 0xa2, 0xbe, 0x22, 0xca, 0xdc, 0xbd, 0xff, 0x4f, 0xfe, 0x3d,
  0xca, 0x60, 0x05, 0x3e, 0xf2, 0xb4, 0xa4, 0x3e, 0xcb, 0xd6, 0x95, 0x3e,
  0xf5, 0xcf, 0x05, 0x3f, 0xae, 0x9e, 0xf8, 0xbe, 0x4b, 0x64, 0xdb, 0xbd,
  0x79, 0xd5, 0xaa, 0x3d, 0x27, 0xdc, 0x40, 0xbe, 0xfe, 0xb5, 0x5f, 0x3e,
  0x75, 0xf9, 0x3b, 0x3e, 0xf7, 0x2a, 0x3d, 0x3d, 0xff, 0xe1, 0x1d, 0xbf,
  0x4d, 0x51, 0xb6, 0xbd, 0x62, 0x47, 0x0e, 0xbe, 0xfa, 0xf4, 0x31, 0xbe,
  0x21, 0xfa, 0xd3, 0x3e, 0x5a, 0xf3, 0x14, 0xbe, 0x9f, 0x83, 0x17, 0xbc,
  0x37, 0x39, 0x35, 0xbe, 0xd8, 0x3c, 0x55, 0xbe, 0xcf, 0xdd, 0xc7, 0x3d,
  0x77, 0xb9, 0x19, 0x3e, 0xb1, 0x53, 0x67, 0xbe, 0xd2, 0xef, 0x59, 0xbe,
  0x65, 0xc9, 0x32, 0x3e, 0xcb, 0x42, 0x55, 0x3e, 0x7e, 0x7b, 0x22, 0x3e,
  0x93, 0xbc, 0x46, 0x3c, 0xce, 0x4d, 0x3f, 0x3d, 0x36, 0xf7, 0x8b, 0x3e,
  0x96, 0x69, 0xa8, 0x3e, 0xaa, 0xd8, 0x03, 0x3d, 0x44, 0x40, 0xa5, 0x3e,
  0xd2, 0x8e, 0x8e, 0x3e, 0xe3, 0xa0, 0x63, 0x3e, 0xb6, 0x8c, 0xa0, 0x3b,
  0x44, 0x9a, 0xb6, 0x3e, 0x7e, 0x94, 0xcc, 0xbd, 0x83, 0x68, 0x1b, 0xbd,
  0xb2, 0xb5, 0xb4, 0x3e, 0x02, 0xa6, 0x70, 0x3d, 0xd3, 0x8a, 0xd5, 0x3d,
  0x62, 0xe3, 0xec, 0x3d, 0x88, 0x6f, 0x82, 0x3e, 0x3e, 0x70, 0xa2, 0x3e,
  0x25, 0x61, 0x8a, 0xbe, 0x56, 0x1b, 0xdd, 0xbd, 0x51, 0x9b, 0x18, 0xbe,
  0xb6, 0xee, 0xce, 0xbd, 0x37, 0xc0, 0x55, 0xbe, 0xd1, 0x37, 0x1f, 0xbf,
  0x48, 0x3a, 0x8a, 0xbd, 0x17, 0x4a, 0xec, 0xbc, 0xf2, 0x24, 0x8f, 0xbe,
  0x62, 0x28, 0xd4, 0xbd, 0x8f, 0xb7, 0xa8, 0xbe, 0x21, 0x3e, 0x73, 0x3d,
  0xe8, 0x72, 0xb7, 0xbe, 0x9e, 0xa2, 0xee, 0x3d, 0x5e, 0xa4, 0xd3, 0xbd,
  0x7a, 0xdf, 0x04, 0x3f, 0xd3, 0x7f, 0x5f, 0x3d, 0x42, 0xb4, 0x3a, 0x3d,
  0x39, 0x98, 0x33, 0x3e, 0x14, 0x91, 0x00, 0xbf, 0x0a, 0xec, 0x9b, 0x3e,
  0x97, 0xec, 0x06, 0xbf, 0x15, 0x0f, 0x74, 0xbe, 0x11, 0x76, 0x2d, 0xbe,
  0x18, 0x59, 0x82, 0x3d, 0xe8, 0x4f, 0x9b, 0x3e, 0xf0, 0x11, 0x55, 0x3e,
  0xbe, 0x49, 0x8b, 0x3e, 0x3a, 0x00, 0x4f, 0x3e, 0xb7, 0xef, 0xb5, 0x3e,
  0x73, 0xae, 0xbd, 0xbd, 0x5a, 0xaf, 0x51, 0x3d, 0xcb, 0xc9, 0xef, 0x3d,
  0xe8, 0x3e, 0xc4, 0x3e, 0x54, 0x12, 0xa7, 0xbd, 0x6a, 0xdd, 0x8d, 0xbe,
  0x2a, 0xdc, 0xff, 0xff, 0x04, 0x00, 0x00, 0x00, 0x00, 0x20, 0x00, 0x00,
  0xd9, 0x66, 0xce, 0x3e, 0x62, 0x08, 0x95, 0xbe, 0xa7, 0x81, 0xb1, 0xbd,
  0x3d, 0x40, 0xfe, 0x3e, 0xea, 0x9b, 0x06, 0xbd, 0x76, 0xe7, 0x4c, 0x3d,
  0x0e, 0x63, 0x76, 0x3e, 0xe0, 0x72, 0x28, 0xbe, 0xea, 0x94, 0x36, 0xbf,
  0x45, 0x0c, 0x95, 0xbd, 0x8a, 0xb2, 0xce, 0x3d, 0x6a, 0x76, 0xb8, 0xbe,
  0x4a, 0x4b, 0xa0, 0x3e, 0x18, 0xe9, 0x80, 0xbe, 0xae, 0x9d, 0x9d, 0xbe,
  0x9b, 0x48, 0x8c, 0x3e, 0x08, 0xec, 0xe9, 0x3e, 0xe4, 0x39, 0x07, 0x3a,
  0xd0, 0x5a, 0x2c, 0xbe, 0xed, 0x66, 0x0b, 0xbd, 0x23, 0xe8, 0x59, 0xbe,
  0x2a, 0xa2, 0x34, 0x3e, 0x74, 0x78, 0x0a, 0x3e, 0x82, 0x20, 0x7b, 0xbe,
  0x6c, 0xc5, 0xbf, 0xbd, 0xd4, 0xbd, 0xf5, 0xbd, 0x60, 0x0f, 0xf0, 0xbd,
  0x38, 0x10, 0xd3, 0xbd, 0xf2, 0x21, 0x59, 0x3e, 0xc2, 0x6d, 0x9b, 0x3e,
  0x8e, 0x03, 0xc7, 0x3e, 0x15, 0xe8, 0x03, 0x3e, 0x39, 0xcf, 0x55, 0x3d,
  0x57, 0x78, 0xba, 0x3e, 0xac, 0x71, 0x8a, 0xbe, 0x14, 0xf4, 0x20, 0xbe,
  0x62, 0x60, 0xa8, 0x3e, 0x3d, 0x9a, 0x78, 0xbe, 0xbb, 0x7f, 0xab, 0xbd,
  0x64, 0x35, 0x41, 0xbe, 0xa8, 0xc2, 0x7c, 0x3e, 0x56, 0xf5, 0xa7, 0xbe,
  0x11, 0x44, 0x96, 0x3e, 0x05, 0xd9, 0xa5, 0xbe, 0x08, 0xac, 0x31, 0x3e,
  0xa5, 0xf8, 0xb4, 0x3e, 0xa9, 0xad, 0x38, 0x3e, 0xe9, 0x8e, 0x3a, 0xbe,
  0xa4, 0xe1, 0x7b, 0x3c, 0xff, 0x3f, 0x52, 0x3e, 0x65, 0xbb, 0x2f, 0xbe,
  0x8d, 0x70, 0x15, 0xbe, 0x36, 0x82, 0xe8, 0xbe, 0xad, 0xb3, 0x2f, 0xbe,
  0x31, 0x98, 0x63, 0xbe, 0xf9, 0x06, 0x6e, 0xbd, 0xf4, 0x3d, 0x9c, 0x3e,
  0xa5, 0x01, 0xe1, 0xbd, 0x2e, 0xa0, 0x89, 0xbd, 0x60, 0x72, 0x69, 0xbe,
  0xdf, 0x50, 0xc4, 0xbd, 0x41, 0xb6, 0x10, 0x3d, 0xd5, 0x92, 0xfc, 0xbe,
  0x60, 0x23, 0x1f, 0xbc, 0x78, 0xe3, 0x29, 0xbe, 0x6b, 0xa6, 0x9e, 0x3e,
  0x7b, 0xc3, 0x8f, 0x3b, 0x9c, 0x7b, 0x47, 0xbe, 0x71, 0x44, 0xad, 0xbd,
  0x43, 0xf0, 0xa0, 0x3d, 0x93, 0x6d, 0xd4, 0x3d, 0x86, 0x05, 0xce, 0x3b,
  0xee, 0x34, 0xd7, 0x3d, 0x1c, 0xa5, 0x1b, 0x3e, 0x75, 0xec, 0x91, 0x3e,
  0x5f, 0x24, 0x19, 0x3e, 0x4c, 0x24, 0x4d, 0x3e, 0xb6, 0x49, 0x46, 0xbe,
  0xa4, 0x70, 0xab, 0x3e, 0x60, 0x28, 0x0d, 0x3e, 0x74, 0x91, 0x64, 0x3c,
  0x20, 0x70, 0xfd, 0x3c, 0x33, 0x18, 0xfd, 0x3e, 0x48, 0xbe, 0xea, 0x3d,
  0x48, 0x5f, 0x6a, 0x3e, 0x64, 0xa4, 0x77, 0x3e, 0xb7, 0x41, 0x57, 0x3d,
  0xff, 0x25, 0xd2, 0x3e, 0x8c, 0x3c, 0x51, 0xbe, 0x45, 0x53, 0x7f, 0x3e,
  0x80, 0xf8, 0x90, 0x3e, 0x81, 0x99, 0x36, 0x3d, 0x37, 0xd3, 0x0d, 0xbe,
  0x73, 0x51, 0x63, 0xbc, 0x3a, 0xc7, 0x58, 0xbe, 0x8e, 0xe9, 0x36, 0x3e,
  0x2d, 0xad, 0xa2, 0x3e, 0x17, 0x67, 0xc4, 0x3d, 0x2b, 0x2a, 0xdd, 0xbd,
  0xf2, 0xa4, 0x33, 0x3d, 0x72, 0x5e, 0x79, 0xbe, 0x7d, 0x3b, 0x28, 0x3e,
  0x1f, 0x5d, 0x58, 0xbe, 0x98, 0x60, 0x45, 0x3e, 0x7f, 0x08, 0x33, 0x3e,
  0x97, 0x99, 0xbc, 0x3e, 0x94, 0xc7, 0x03, 0xbe, 0x9b, 0x64, 0xbb, 0x3e,
  0x97, 0xf8, 0xc3, 0x3d, 0xff, 0xa2, 0x0d, 0xbe, 0x99, 0x19, 0xa2, 0x3d,
  0xa6, 0x47, 0x90, 0x3d, 0xbf, 0x86, 0x9d, 0xbd, 0xcb, 0x35, 0x91, 0xbe,
  0xba, 0x77, 0xa0, 0x3e, 0xa7, 0x0d, 0x0e, 0x3f, 0x2f, 0xd0, 0xc7, 0x3d,
  0xf5, 0xac, 0xe6, 0x3e, 0xee, 0xfe, 0x0b, 0x3e, 0xff, 0x6b, 0x27, 0xbd,
  0xe0, 0xec, 0x7b, 0x3d, 0xe1, 0xb3, 0x04, 0xbe, 0x0a, 0x4c, 0xa3, 0x3d,
  0x2a, 0xb6, 0x29, 0x3e, 0xd8, 0xcd, 0x69, 0x3e, 0xc8, 0x63, 0xe1, 0xbd,
  0x33, 0xdd, 0x1e, 0x3e, 0x60, 0x5e, 0x52, 0xbe, 0xc2, 0x98, 0xbd, 0x3e,
  0xef, 0xf6, 0xf5, 0x3c, 0xe3, 0xae, 0x8d, 0x3e, 0x94, 0x21, 0x53, 0x3e,
  0xd5, 0x8b, 0xf5, 0xbd, 0x58, 0x37, 0x87, 0xbd, 0x44, 0xb2, 0x97, 0x3e,
  0x88, 0xf1, 0x67, 0x3c, 0x26, 0x87, 0x8b, 0xbe, 0xd7, 0x1b, 0x3c, 0xbe,
  0x46, 0xd0, 0x8d, 0xbe, 0x1a, 0x0a, 0x62, 0x3e, 0x71, 0x2e, 0x8b, 0x3e,
  0x74, 0xdb, 0xe7, 0xbc, 0xe7, 0x6d, 0x22, 0xbe, 0xfc, 0xcb, 0x95, 0x3e,
  0x3e, 0x52, 0xe4, 0x3e, 0xb8, 0x2d, 0xcf, 0x3d, 0xa6, 0x8c, 0xd6, 0xbd,
  0x4b, 0x22, 0x6a, 0x3e, 0x30, 0x4f, 0x87, 0xbc, 0x29, 0x9c, 0xcb, 0x3d,
  0x24, 0x66, 0xc0, 0x3d, 0xe1, 0x69, 0x3e, 0xbe, 0x90, 0x2e, 0xc1, 0xbe,
  0x15, 0x72, 0xa7, 0xbe, 0x87, 0x0e, 0x22, 0xbe, 0x0d, 0xed, 0x6b, 0x3e,
  0x95, 0xec, 0xb1, 0x3e, 0x3d, 0xcd, 0x61, 0x3e, 0xbc, 0x8c, 0xf2, 0x3e,
  0x77, 0x55, 0x76, 0xbe, 0xcd, 0x7c, 0x95, 0x3d, 0x93, 0xc8, 0xc5, 0x3e,
  0x81, 0x8e, 0xbc, 0xbe, 0x13, 0x03, 0x94, 0x3e, 0xc0, 0xca, 0x72, 0x3e,
  0x85, 0x32, 0x2f, 0xbe, 0xfe, 0x9e, 0xab, 0x3d, 0xb6, 0xce, 0xf5, 0xbd,
  0xbd, 0x8c, 0x62, 0xbe, 0x25, 0x85, 0xe5, 0x3c, 0xbe, 0xee, 0xd5, 0x3e,
  0x89, 0xbc, 0xb1, 0xbe, 0x6a, 0x6b, 0xc0, 0x3e, 0x20, 0xf8, 0x32, 0x3e,
  0xea, 0x56, 0xaf, 0x3e, 0x6b, 0xe3, 0x7d, 0xbe, 0x16, 0x3a, 0xbe, 0x3e,
  0x02, 0xea, 0xdf, 0x3c, 0x3f, 0xb5, 0xb0, 0xbe, 0x51, 0x2c, 0x97, 0xbd,
  0x3f, 0xc0, 0x2b, 0x3e, 0x91, 0xf3, 0x10, 0xbe, 0x18, 0x26, 0xe6, 0xbe,
  0xd9, 0x71, 0x6e, 0xbe, 0x8e, 0x07, 0x73, 0x3e, 0x42, 0x89, 0x96, 0xbd,
  0x9b, 0x64, 0x6c, 0x3e, 0xc6, 0x23, 0xfe, 0x3c, 0xb2, 0x24, 0x1e, 0xbe,
  0xbd, 0xfb, 0xdb, 0x3d, 0x4f, 0x83, 0x51, 0xbe, 0x1d, 0x7f, 0x0a, 0x3d,
  0x5e, 0x4d, 0x81, 0x3e, 0x51, 0xe8, 0x91, 0xbe, 0xdd, 0x96, 0xaf, 0x3d,
  0xfc, 0xc4, 0xae, 0xbc, 0x45, 0x85, 0x01, 0x3e, 0x8c, 0xcb, 0x76, 0xbe,
  0x25, 0x6a, 0xb7, 0x3b, 0x90, 0x96, 0xaf, 0xbc, 0xe5, 0x74, 0xd7, 0xbe,
  0xde, 0xce, 0xd3, 0xbe, 0xd1, 0xb5, 0x8a, 0xbd, 0x62, 0xec, 0xaa, 0xbe,
  0xc2, 0xeb, 0xcd, 0x3d, 0xdc, 0xbd, 0x10, 0x3e, 0x7a, 0x3d, 0x55, 0xbe,
  0xcb, 0x1e, 0x78, 0x3e, 0xb0, 0xc1, 0x49, 0x3e, 0x6e, 0xb7, 0x31, 0x3e,
  0xcc, 0xb3, 0x5d, 0xbe, 0x82, 0x30, 0xad, 0x3e, 0xbb, 0xe5, 0x30, 0xbd,
  0xfd, 0xea, 0x5e, 0xbe, 0x19, 0x3d, 0x74, 0x3e, 0x0c, 0x86, 0xef, 0x3d,
  0xc4, 0x23, 0x56, 0x3d, 0x51, 0x5c, 0x31, 0xbe, 0xb8, 0x26, 0x88, 0xbd,
  0x41, 0x2d, 0x41, 0x3d, 0x26, 0xef, 0x17, 0x3e, 0xc3, 0x35, 0x2f, 0x3e,
  0xf1, 0x65, 0xca, 0x3e, 0x06, 0x51, 0xef, 0x3d, 0x32, 0xa6, 0xab, 0xbe,
  0x6b, 0x41, 0x57, 0x3e, 0x23, 0x28, 0xe7, 0xbd, 0x0f, 0x48, 0xde, 0xbd,
  0xf6, 0x03, 0x0b, 0x3e, 0xb3, 0xdc, 0x4a, 0xbe, 0xff, 0x14, 0x83, 0x3e,
  0x77, 0xd0, 0x7f, 0x3e, 0x8f, 0x80, 0x8c, 0x3d, 0xaa, 0x0d, 0xc3, 0xbe,
  0x56, 0x53, 0xaf, 0x3e, 0x98, 0xde, 0x7a, 0xbe, 0x66, 0x7f, 0xf8, 0xbd,
  0x08, 0x1b, 0x00, 0xbe, 0xf2, 0x07, 0x00, 0x3e, 0x7e, 0xcf, 0xf9, 0x3d,
  0x9e, 0xef, 0x1c, 0x3e, 0xad, 0x14, 0xa8, 0x3e, 0x1f, 0xc3, 0x06, 0xbf,
  0xea, 0x0a, 0xea, 0xbe, 0x28, 0xaf, 0x0e, 0xbe, 0xa0, 0xa2, 0xe1, 0xbe,
  0x0d, 0x1b, 0x95, 0xbe, 0xfc, 0xb7, 0xac, 0xbe, 0x6e, 0xd4, 0x7e, 0xbd,
  0x3d, 0x4e, 0x16, 0x3d, 0x4c, 0x7b, 0x0b, 0x3e, 0x02, 0x1a, 0x26, 0x3d,
  0x15, 0xf1, 0xb2, 0x3d, 0xd0, 0x5b, 0x8d, 0xbc, 0xa5, 0x57, 0xd8, 0xbe,
  0xbc, 0x3c, 0x00, 0x3e, 0xaa, 0xcb, 0x1d, 0xbe, 0x48, 0xa0, 0x53, 0xbe,
  0x35, 0xe4, 0x13, 0x3e, 0x66, 0x65, 0xd2, 0xbc, 0x1f, 0x2b, 0x1f, 0xbb,
  0x53, 0x39, 0x13, 0xbe, 0x9f, 0x2f, 0x75, 0xbe, 0xfa, 0x52, 0xcb, 0xbd,
  0xd6, 0x57, 0xe1, 0xbd, 0x23, 0xb2, 0x0c, 0xbd, 0x3d, 0x8a, 0xca, 0xbd,
  0x81, 0x93, 0xa6, 0x3d, 0x46, 0x38, 0x34, 0xbe, 0xe2, 0x94, 0x02, 0xbe,
  0xa8, 0x7b, 0x6c, 0xbe, 0x69, 0xc3, 0x5d, 0xbe, 0x90, 0xa4, 0x26, 0xbe,
  0xd6, 0xe1, 0x79, 0xbe, 0xdc, 0xa4, 0xe0, 0x3c, 0x51, 0xe8, 0x84, 0xbe,
  0x0c, 0xdf, 0x56, 0x3e, 0x25, 0x6e, 0x20, 0x3e, 0x7b, 0x99, 0x0f, 0xbe,
  0x38, 0x54, 0x2c, 0x3e, 0xc2, 0x67, 0xa2, 0x3d, 0xbd, 0xf1, 0xbf, 0x3d,
  0x50, 0x29, 0x15, 0xbe, 0x8c, 0xc1, 0x02, 0x3d, 0x75, 0x19, 0x3a, 0xbe,
  0xbd, 0x8e, 0x10, 0xbd, 0x17, 0xc5, 0x03, 0x3e, 0xc7, 0x35, 0x4a, 0x3e,
  0x07, 0xf7, 0xc9, 0x3c, 0xe5, 0x09, 0x66, 0xbe, 0x92, 0x54, 0x88, 0xbe,
  0x12, 0x1c, 0x6c, 0xbd, 0x13, 0xdc, 0x27, 0xbe, 0xee, 0x8d, 0x87, 0xbe,
  0xc4, 0x70, 0x2d, 0x3e, 0x75, 0x35, 0xef, 0xbd, 0xc1, 0x09, 0x28, 0x3c,
  0x85, 0x49, 0xff, 0xbb, 0xe4, 0x10, 0xf7, 0xbd, 0x86, 0x78, 0x82, 0xbe,
  0x4b, 0xef, 0x28, 0x3e, 0x6e, 0xda, 0x9d, 0x3d, 0xb3, 0xbc, 0x77, 0xbd,
  0xe5, 0x9d, 0x3d, 0x3e, 0x9d, 0x40, 0x19, 0x3d, 0xef, 0x8d, 0x01, 0x3c,
  0xa6, 0xbe, 0xb6, 0xbd, 0x36, 0x16, 0x44, 0x3e, 0x0e, 0xa0, 0x1e, 0xbe,
  0xad, 0x9d, 0x0c, 0x3d, 0xd6, 0xcf, 0x19, 0x3e, 0xca, 0x1a, 0xf3, 0xbd,
  0x00, 0x0c, 0x4a, 0xbe, 0x77, 0xf7, 0x6b, 0xbe, 0x04, 0x80, 0x21, 0xbe,
  0x36, 0xa8, 0x85, 0xbe, 0xd8, 0xf2, 0x8f, 0x3c, 0x8b, 0x0e, 0x60, 0xbc,
  0x25, 0xde, 0x1e, 0xbe, 0x97, 0x76, 0x5b, 0x3e, 0x21, 0x79, 0x8c, 0x3d,
  0x5f, 0x34, 0x80, 0x3c, 0xf4, 0xc4, 0x17, 0x3a, 0xbd, 0x3f, 0x7e, 0x3e,
  0xf6, 0xf7, 0x8b, 0xbe, 0x20, 0xf6, 0xd8, 0xbe, 0x0c, 0x16, 0xa6, 0x3e,
  0xbb, 0x4e, 0x45, 0x3e, 0x44, 0x43, 0xae, 0x3d, 0x98, 0xe2, 0x0a, 0xbe,
  0x23, 0x2e, 0x88, 0xbe, 0xa3, 0xae, 0x31, 0x3d, 0x59, 0xf2, 0x8b, 0x3e,
  0x5e, 0x5d, 0x81, 0xbe, 0x70, 0x8f, 0x33, 0xbd, 0x73, 0x13, 0x89, 0xbd,
  0x41, 0x61, 0xfd, 0xbd, 0x24, 0xdb, 0x08, 0x3f, 0x3b, 0x2f, 0x0f, 0xbd,
  0x89, 0xfd, 0xef, 0x3e, 0xa0, 0x3e, 0x3a, 0xbe, 0xa3, 0xc2, 0x4a, 0x3e,
  0xa5, 0x65, 0x86, 0x3d, 0x03, 0x98, 0x7e, 0x3e, 0x2f, 0xf8, 0x83, 0xbd,
  0x40, 0x05, 0x61, 0x3e, 0x24, 0x41, 0x70, 0x3d, 0xad, 0xe2, 0xb7, 0x3e,
  0xfd, 0x25, 0xe9, 0xbb, 0xea, 0xcd, 0x89, 0x3e, 0x60, 0xe7, 0x66, 0x3e,
  0xd4, 0x87, 0xe9, 0xbe, 0x14, 0xc8, 0x93, 0x3e, 0x0e, 0x55, 0x9e, 0x3e,
  0x6c, 0xf5, 0x11, 0x3c, 0x5e, 0xfc, 0xa6, 0x3e, 0x4f, 0x25, 0xd7, 0x3e,
  0xf7, 0x7c, 0xa4, 0xbe, 0x26, 0x24, 0xdc, 0x3d, 0xb6, 0xb3, 0x95, 0x3e,
  0xde, 0xc3, 0xe0, 0x3d, 0x85, 0xdb, 0x9c, 0xbe, 0xe8, 0x74, 0x01, 0x3f,
  0xdc, 0xd6, 0x68, 0xbd, 0x8d, 0xdf, 0x27, 0x3e, 0x6a, 0x49, 0x03, 0x3e,
  0xe3, 0xf8, 0x83, 0x3e, 0xe0, 0x0f, 0xa9, 0x3c, 0xda, 0xe3, 0x40, 0xbc,
  0xea, 0x32, 0xb5, 0xbe, 0xe4, 0x33, 0x07, 0x3d, 0x40, 0xce, 0x38, 0xbe,
  0xc8, 0x32, 0xf8, 0x3d, 0x01, 0xbc, 0xaa, 0xbe, 0x47, 0x68, 0x39, 0xbe,
  0x6a, 0x24, 0x6f, 0xbd, 0x9e, 0x3e, 0xde, 0x3e, 0xe7, 0x2d, 0x16, 0x3e,
  0x2e, 0x17, 0xba, 0x3e, 0x64, 0xd2, 0xbf, 0xbe, 0xe9, 0x7c, 0x9b, 0x3d,
  0x7c, 0x31, 0x27, 0xbe, 0xa5, 0x43, 0x58, 0x3d, 0x2e, 0x6b, 0xfb, 0x3e,
  0x95, 0xb1, 0xb8, 0xbd, 0xf1, 0x72, 0x2f, 0xbd, 0xde, 0x7d, 0x1b, 0xbe,
  0xdf, 0x41, 0xaa, 0xbe, 0x05, 0x6e, 0xde, 0x3d, 0x66, 0xcc, 0xe9, 0x3e,
  0x66, 0x8c, 0xcf, 0x3c, 0x6a, 0xd9, 0x84, 0x3e, 0x9d, 0xcf, 0x15, 0x3f,
  0x37, 0x5d, 0xcd, 0x3e, 0x10, 0x17, 0xfe, 0x3d, 0x4f, 0xd8, 0x52, 0x3e,
  0x0c, 0x6f, 0xd9, 0x3d, 0xc7, 0x00, 0x09, 0x3e, 0x9d, 0x28, 0xcf, 0x3e,
  0xd5, 0xc5, 0x26, 0x3e, 0x15, 0x64, 0x63, 0xbc, 0x11, 0x8a, 0x09, 0xbe,
  0x3d, 0xf7, 0x16, 0x3e, 0xcc, 0xfb, 0x2e, 0xbe, 0x6f, 0xdf, 0xe9, 0x3d,
  0xac, 0x27, 0xa8, 0x3e, 0xc8, 0x7d, 0x97, 0xbe, 0x40, 0x44, 0xb1, 0x3e,
  0xd3, 0x82, 0xce, 0xbd, 0x72, 0x9e, 0x1b, 0x3f, 0x6e, 0x8d, 0x76, 0x3d,
  0x0b, 0x76, 0x60, 0x3e, 0x50, 0xbf, 0xca, 0xbd, 0xd2, 0x57, 0xbe, 0xbd,
  0xb4, 0x80, 0xde, 0xbd, 0xff, 0xa9, 0xbc, 0xbd, 0x88, 0xe3, 0x85, 0x3e,
  0xb7, 0x04, 0x62, 0x3d, 0xa3, 0x2f, 0xa6, 0x3d, 0x34, 0xa2, 0x06, 0x3e,
  0xac, 0xff, 0x1a, 0x3e, 0x41, 0xee, 0x13, 0x3f, 0xe7, 0x11, 0x0c, 0xbe,
  0xec, 0xfd, 0x90, 0x3d, 0x96, 0x29, 0xa4, 0x3e, 0xf0, 0x51, 0xd4, 0x3e,
  0xc5, 0x6a, 0xaf, 0xbe, 0xce, 0x39, 0xe5, 0x3e, 0x83, 0x2e, 0x12, 0x3e,
  0xfa, 0x98, 0x10, 0x3e, 0xb6, 0x54, 0x36, 0x3d, 0x4f, 0x97, 0x1d, 0x3e,
  0xe7, 0x25, 0x9c, 0x3d, 0x97, 0x7f, 0x10, 0x3e, 0xd7, 0xd1, 0x2c, 0x3f,
  0xf6, 0x21, 0xa9, 0x3e, 0xb5, 0xa3, 0xa9, 0x3e, 0xbe, 0xc7, 0x37, 0x3f,
  0x78, 0x1a, 0x3a, 0x3f, 0x81, 0xd9, 0x6e, 0x3e, 0x63, 0x87, 0xa1, 0xbe,
  0xce, 0xae, 0x3e, 0xbe, 0xbf, 0x22, 0xa4, 0x3d, 0x7b, 0xed, 0xad, 0x3e,
  0x2d, 0x06, 0xae, 0x3d, 0xa0, 0x44, 0x53, 0x3e, 0x73, 0x34, 0xd0, 0x3e,
  0xee, 0x7f, 0xaf, 0xbe, 0x49, 0x14, 0x6f, 0x3d, 0x7f, 0xf2, 0x20, 0x3e,
  0xd7, 0x3a, 0x3e, 0x3e, 0xee, 0x59, 0x03, 0xbe, 0xae, 0x5e, 0xc2, 0x3e,
  0x9a, 0xad, 0xbe, 0x3e, 0x1b, 0x7a, 0x84, 0xbe, 0xf9, 0xe8, 0x79, 0xbe,
  0xf5, 0x33, 0x29, 0x3c, 0x0b, 0xc8, 0xbf, 0x3e, 0xc9, 0x76, 0x9c, 0x3e,
  0xee, 0xad, 0x1f, 0x3e, 0x6f, 0x62, 0x12, 0xbe, 0x26, 0x59, 0xa2, 0x3d,
  0xd8, 0x75, 0x98, 0x3e, 0x13, 0xe0, 0x89, 0xbe, 0x54, 0x97, 0x22, 0xbc,
  0xa9, 0xbd, 0x09, 0xbe, 0x16, 0x38, 0x35, 0x3e, 0xd8, 0xc7, 0x01, 0xbe,
  0xee, 0x3c, 0x8c, 0xbe, 0x10, 0x1f, 0x69, 0xbc, 0xe7, 0xdb, 0xb0, 0xbe,
  0x82, 0x1f, 0x7e, 0x3e, 0xf4, 0x26, 0x1e, 0xbe, 0x49, 0xa9, 0x8b, 0x3e,
  0xe1, 0xca, 0xf1, 0x3d, 0x7f, 0x05, 0x95, 0x3d, 0x7e, 0x87, 0x32, 0xbe,
  0x98, 0xc2, 0x32, 0xbd, 0xb1, 0xa5, 0xb9, 0xbe, 0xf4, 0xf4, 0xd8, 0x3d,
  0x05, 0x9d, 0xa2, 0xbc, 0x18, 0x80, 0xc4, 0xbe, 0xaa, 0x24, 0x8f, 0x3e,
  0xf4, 0x1b, 0x84, 0x3d, 0xb3, 0x4a, 0x89, 0xbe, 0xea, 0x99, 0x48, 0x3e,
  0x1f, 0xaf, 0x91, 0xbd, 0xe6, 0xd9, 0x93, 0xbe, 0x78, 0x75, 0x92, 0x3e,
  0x36, 0xb5, 0x99, 0x3e, 0x98, 0xa6, 0x18, 0xbe, 0xfc, 0xc1, 0xc3, 0x3e,
  0x2d, 0x34, 0x41, 0x3e, 0x07, 0x73, 0xfa, 0x3d, 0xa2, 0x08, 0xf2, 0xbd,
  0xd7, 0xf0, 0x7c, 0x3e, 0xe1, 0x98, 0xd3, 0xbd, 0xc2, 0xb1, 0xcb, 0x3c,
  0x5a, 0x40, 0x71, 0xba, 0x56, 0xf9, 0xbe, 0x3d, 0x2a, 0x40, 0x9b, 0x3d,
  0xb1, 0x62, 0xd3, 0x3e, 0x5b, 0xad, 0x69, 0x3e, 0x37, 0xb6, 0x2d, 0x3e,
  0xb3, 0xc3, 0xb1, 0xbe, 0xf3, 0xcc, 0x05, 0x3b, 0x14, 0x34, 0x1b, 0xbd,
  0x86, 0xad, 0xa0, 0x3e, 0x69, 0x5e, 0xb9, 0x3e, 0x13, 0xd0, 0x9b, 0xbe,
  0x36, 0x87, 0x84, 0xbd, 0x5e, 0x96, 0x3e, 0xbe, 0x9b, 0x82, 0xec, 0x3b,
  0xc9, 0x50, 0x1c, 0x3e, 0x8e, 0xf8, 0x3c, 0x3e, 0x9a, 0xd0, 0x1f, 0xbe,
  0x6a, 0x3d, 0xa4, 0x3e, 0x4b, 0xfa, 0xf9, 0x3b, 0xa9, 0xb6, 0xf1, 0x3c,
  0xf4, 0x36, 0xdf, 0x3d, 0x27, 0x5a, 0x08, 0x3f, 0xcb, 0xa8, 0xef, 0x3e,
  0x3f, 0x6e, 0x9e, 0x3e, 0xe7, 0x37, 0x9b, 0x3e, 0x61, 0x6e, 0x87, 0x3e,
  0x3b, 0x4b, 0xd0, 0x3c, 0xe9, 0xcc, 0xfd, 0x3d, 0x10, 0xf6, 0xd5, 0xbd,
  0x66, 0xcd, 0x6b, 0xbe, 0x05, 0x06, 0x14, 0xbe, 0xd2, 0x25, 0xc5, 0x3e,
  0x7c, 0xb6, 0x8e, 0xbd, 0xca, 0x6f, 0x33, 0x3e, 0x19, 0x6b, 0x38, 0x3e,
  0x82, 0xdd, 0x81, 0x3d, 0x47, 0x51, 0x7e, 0x3e, 0xe5, 0x31, 0xbb, 0x3e,
  0xef, 0xce, 0x37, 0x3f, 0x5c, 0xb8, 0x5c, 0xbd, 0x17, 0xd2, 0x03, 0x3e,
  0x97, 0x73, 0x6c, 0xbe, 0xc9, 0xf2, 0x6f, 0x3e, 0xce, 0x7a, 0xb4, 0x3d,
  0x16, 0x22, 0x24, 0x3e, 0xdb, 0xa7, 0x8d, 0xbd, 0x40, 0x56, 0x73, 0xbe,
  0x99, 0x93, 0xfd, 0x3e, 0xb8, 0x86, 0x3b, 0xbd, 0xfb, 0x2e, 0x52, 0xbd,
  0xb8, 0x9d, 0xbf, 0x3e, 0xe9, 0x4d, 0x51, 0x3e, 0x8c, 0x5f, 0x5c, 0x3c,
  0x44, 0xf5, 0x41, 0x3e, 0xc2, 0x66, 0x04, 0x3e, 0xad, 0x96, 0xce, 0xbd,
  0xf1, 0xf6, 0xef, 0x3e, 0x73, 0xc2, 0x85, 0xbd, 0x70, 0x01, 0x0b, 0xbe,
  0x68, 0x8d, 0x6a, 0x3d, 0xa5, 0x95, 0xad, 0x3e, 0xfc, 0xd3, 0x4d, 0xbe,
  0x6d, 0x4d, 0x68, 0x3d, 0xab, 0xbf, 0xe9, 0x3e, 0x07, 0x97, 0x93, 0x3e,
  0xcd, 0x3c, 0x83, 0x3e, 0xdc, 0x0d, 0x1e, 0x3f, 0xc3, 0xeb, 0x18, 0x3f,
  0x55, 0xfd, 0x0a, 0x3d, 0x04, 0x5a, 0x95, 0xbe, 0x8e, 0xe6, 0x24, 0x3e,
  0x6a, 0xaa, 0x40, 0xbe, 0x35, 0x1c, 0xec, 0x3e, 0xa9, 0x2d, 0x66, 0x3e,
  0xa7, 0x7c, 0x44, 0x3e, 0xaa, 0x0e, 0xb7, 0x3e, 0xfd, 0x0c, 0x8e, 0xbe,
  0xdd, 0x11, 0x1e, 0x3e, 0xd8, 0x37, 0x5f, 0x3d, 0x86, 0x84, 0xa2, 0x3c,
  0x7e, 0x28, 0xbc, 0x3e, 0x34, 0x79, 0x64, 0xbe, 0x21, 0x1e, 0x69, 0xbd,
  0x8b, 0xae, 0x24, 0xbb, 0xc0, 0x54, 0xd0, 0x3c, 0xae, 0xef, 0x04, 0x3e,
  0xef, 0xc5, 0x72, 0xbe, 0xa9, 0x7c, 0x24, 0x3e, 0x3f, 0x3a, 0x0d, 0x3e,
  0x61, 0x37, 0x9b, 0x3e, 0xe8, 0x74, 0xb2, 0xbd, 0xe9, 0xa8, 0x3e, 0x3e,
  0x66, 0x87, 0xc9, 0xbe, 0x54, 0xd4, 0x56, 0x3e, 0xe7, 0xaf, 0x86, 0xbd,
  0x17, 0xbd, 0xf9, 0xbd, 0x0c, 0x80, 0xce, 0x3d, 0x49, 0x08, 0xb0, 0xbd,
  0xd9, 0x88, 0x7c, 0x3e, 0x69, 0x8a, 0xbf, 0x3d, 0xeb, 0x17, 0x8e, 0x3e,
  0x16, 0x89, 0x42, 0xbe, 0xec, 0x4d, 0x40, 0x3e, 0x67, 0x83, 0x9b, 0x3e,
  0x20, 0xc4, 0xbb, 0x3e, 0x32, 0x8b, 0x56, 0xbe, 0xaa, 0x9b, 0x2d, 0xbd,
  0xfa, 0x62, 0x02, 0xbe, 0xcf, 0x83, 0x9d, 0xbd, 0xe9, 0xf7, 0x48, 0x3e,
  0x23, 0x9b, 0x55, 0xbe, 0x39, 0x00, 0x91, 0xbe, 0xa1, 0xca, 0xfe, 0xbc,
  0x43, 0x1a, 0x2e, 0x3e, 0x61, 0x99, 0x40, 0xbe, 0x98, 0xdb, 0x1d, 0x3d,
  0xe1, 0xb9, 0x20, 0xbc, 0xf4, 0x3b, 0x2b, 0x3e, 0x82, 0x5f, 0xdb, 0xbd,
  0x4e, 0x28, 0x4f, 0x3e, 0x09, 0x38, 0x02, 0x3d, 0x21, 0xc5, 0x6f, 0xbc,
  0xb6, 0x8b, 0xd3, 0x3d, 0x88, 0x7f, 0xd0, 0xbd, 0x7c, 0x47, 0x8e, 0x3e,
  0xca, 0xb4, 0x37, 0x3e, 0x60, 0x60, 0xf3, 0xbd, 0xbb, 0x4d, 0xe7, 0x3d,
  0x43, 0x0b, 0x17, 0x3e, 0xaa, 0xda, 0x47, 0x3e, 0x3b, 0x52, 0x6d, 0x3e,
  0x78, 0x1c, 0x23, 0xbe, 0x28, 0x8f, 0x84, 0x3e, 0x63, 0x70, 0x50, 0x3d,
  0xc1, 0x42, 0x3f, 0x3e, 0xf3, 0xed, 0xd4, 0x3d, 0xbe, 0xbb, 0x4e, 0xbe,
  0x40, 0x0b, 0x9c, 0xbd, 0xb3, 0x05, 0x06, 0x3e, 0xb1, 0xba, 0x9a, 0xba,
  0x7e, 0x51, 0xcf, 0xbd, 0xa4, 0xfb, 0x5b, 0xbe, 0xd4, 0x8e, 0x99, 0xbc,
  0x5e, 0x70, 0xa5, 0x3e, 0x7f, 0x09, 0x2c, 0x3e, 0xfc, 0xc8, 0x4e, 0x3e,
  0x3b, 0xbd, 0xdb, 0x3d, 0x70, 0xba, 0x57, 0xbe, 0x1d, 0x49, 0xb4, 0xbd,
  0xca, 0x29, 0xf7, 0x3c, 0x4d, 0x3f, 0xa3, 0x3d, 0x59, 0xd9, 0x0d, 0x3e,
  0x09, 0x7d, 0x1d, 0x3e, 0xe4, 0x74, 0x01, 0x3e, 0x38, 0x6c, 0xa9, 0x3d,
  0xbe, 0x55, 0x92, 0xba, 0x9e, 0x7c, 0x4c, 0x3e, 0x19, 0x28, 0xde, 0xbc,
  0x6c, 0x8d, 0x14, 0xbe, 0xa3, 0xc3, 0xa7, 0x3e, 0x91, 0x5d, 0x8e, 0xbe,
  0x20, 0x97, 0x01, 0x3e, 0x67, 0xdc, 0x43, 0x3e, 0x1c, 0x10, 0x5d, 0xbe,
  0x96, 0xe8, 0x2a, 0xbe, 0x86, 0xde, 0xec, 0xbb, 0x3d, 0xa8, 0xcd, 0x3d,
  0x28, 0x1a, 0x4e, 0x3d, 0x6d, 0x64, 0x9f, 0x3d, 0xe8, 0xe3, 0xd5, 0xbd,
  0xd7, 0x77, 0x65, 0xbe, 0xd0, 0x2a, 0x0b, 0x3b, 0x24, 0x5a, 0xe0, 0x3e,
  0x04, 0xc2, 0x83, 0xbe, 0xdc, 0xc7, 0x59, 0x3d, 0x74, 0x27, 0x00, 0x3e,
  0xca, 0x11, 0x4d, 0x3d, 0x39, 0xc6, 0x6e, 0xbe, 0x35, 0x73, 0x02, 0xbe,
  0x70, 0x1a, 0x4b, 0x3d, 0x81, 0x39, 0xb9, 0xba, 0xb0, 0x88, 0x59, 0xbe,
  0xd1, 0x27, 0x01, 0x3f, 0x29, 0x7c, 0xc8, 0xbe, 0xb7, 0x3a, 0x63, 0x3e,
  0x40, 0x12, 0xea, 0x3d, 0x2e, 0xa3, 0x88, 0x3d, 0xf7, 0x2f, 0x44, 0x3e,
  0x4e, 0x11, 0x7a, 0x3e, 0x73, 0x8e, 0x03, 0xbe, 0xda, 0x04, 0x12, 0x3d,
  0x89, 0xa8, 0x16, 0xbe, 0x32, 0x3f, 0x22, 0x3e, 0x2b, 0xb3, 0x2d, 0x3e,
  0xba, 0xe5, 0xc3, 0x3e, 0x12, 0x76, 0x0d, 0x3e, 0xce, 0x7b, 0xa3, 0x3e,
  0x71, 0xff, 0xe0, 0x3d, 0x3c, 0x00, 0x5b, 0xbe, 0x5f, 0x9c, 0x3d, 0xbe,
  0x3d, 0xf2, 0x86, 0x3e, 0x85, 0x4b, 0x57, 0x3d, 0x22, 0x4d, 0xcb, 0xbd,
  0x9f, 0xdb, 0xe4, 0xbd, 0xe0, 0xa1, 0x67, 0x3d, 0xd5, 0xb7, 0x83, 0xbe,
  0x80, 0x18, 0x20, 0x3e, 0xc2, 0xec, 0xac, 0xbd, 0xd6, 0xed, 0x8b, 0x3d,
  0x28, 0xfd, 0xd3, 0x3e, 0xda, 0x2d, 0x1c, 0x3e, 0xb8, 0x53, 0xa1, 0xbe,
  0x1d, 0xdf, 0x07, 0xbe, 0xc5, 0x3b, 0x99, 0x3d, 0x55, 0xa2, 0xc4, 0x3e,
  0x9f, 0xe4, 0x99, 0x3e, 0x4b, 0x36, 0x50, 0x3e, 0xc6, 0x24, 0x9f, 0xbb,
  0xbe, 0xf1, 0x8c, 0xbc, 0x54, 0xd2, 0x83, 0x3e, 0x3e, 0x24, 0x88, 0xbd,
  0x59, 0x39, 0x1d, 0x3d, 0xc2, 0x58, 0xae, 0xbe, 0x86, 0x9a, 0x59, 0x3e,
  0x2f, 0xa7, 0x11, 0xbe, 0x52, 0xa8, 0x5f, 0xbd, 0xf5, 0x1e, 0xd3, 0xbc,
  0xf1, 0x38, 0xbb, 0xbe, 0x89, 0x99, 0x6f, 0x3e, 0x37, 0xf2, 0xb5, 0xbe,
  0x7d, 0x1f, 0xcf, 0x3e, 0x9f, 0x55, 0x29, 0x3e, 0xb1, 0x4c, 0x47, 0x3e,
  0x96, 0xbb, 0x9a, 0xbe, 0xf8, 0xa9, 0xce, 0xbe, 0x06, 0x31, 0xb8, 0xbe,
  0x84, 0xa7, 0xa4, 0x3e, 0xfa, 0xfb, 0x5f, 0x3e, 0x16, 0xad, 0x58, 0xbd,
  0x99, 0x3d, 0x08, 0x3e, 0xac, 0x45, 0x83, 0xbe, 0x8e, 0xd2, 0x25, 0x3e,
  0xe2, 0xcf, 0x81, 0xbe, 0x54, 0xda, 0xb7, 0x3d, 0xc6, 0xe9, 0xac, 0xbd,
  0xd1, 0x18, 0xef, 0xbd, 0xe9, 0xb1, 0xc9, 0x3e, 0x0e, 0x0a, 0x5a, 0xbe,
  0xbe, 0xe9, 0x9d, 0x3d, 0x4b, 0x8d, 0x16, 0x3e, 0xa7, 0xfb, 0x61, 0xbd,
  0x4f, 0xae, 0xe2, 0x3d, 0x72, 0xaf, 0x24, 0xbd, 0xe1, 0x33, 0xed, 0xbe,
  0x6a, 0x4a, 0x53, 0xbe, 0xc2, 0x72, 0xc7, 0x3e, 0x5f, 0x96, 0x4e, 0x3e,
  0xf0, 0x0b, 0x9f, 0x3e, 0xea, 0xe3, 0x8d, 0x3e, 0x27, 0xc2, 0x41, 0x3e,
  0x10, 0xf1, 0x28, 0x3d, 0x11, 0xa2, 0x22, 0xbe, 0xf4, 0xb5, 0xa1, 0xbc,
  0x18, 0x30, 0x0c, 0xbf, 0x87, 0x8e, 0x6e, 0x3e, 0x88, 0xc1, 0x43, 0x3e,
  0xbf, 0x54, 0x88, 0xbe, 0x40, 0x61, 0xf0, 0x3d, 0x07, 0x8c, 0x8a, 0xbe,
  0x2e, 0x01, 0x2b, 0xbe, 0x9d, 0xfd, 0x13, 0x3e, 0xd8, 0xe4, 0xfa, 0x3c,
  0xee, 0xb6, 0x92, 0xbe, 0x6a, 0x86, 0x84, 0x3e, 0xdf, 0xc4, 0x09, 0x3e,
  0x78, 0x52, 0x32, 0x3e, 0xee, 0xc9, 0x9d, 0x3d, 0x52, 0xf9, 0x52, 0x3e,
  0xe5, 0x98, 0x76, 0x3e, 0xc3, 0x73, 0xc5, 0xba, 0xe5, 0x0b, 0xff, 0xbd,
  0x94, 0xf6, 0xe4, 0xbd, 0x84, 0x32, 0xef, 0x3e, 0xb9, 0x3d, 0x9a, 0x3e,
  0x9e, 0x0c, 0xc8, 0x3c, 0x47, 0xbe, 0xdf, 0x3d, 0x42, 0x0b, 0xdc, 0xbd,
  0x3e, 0xbe, 0xa1, 0x3e, 0x72, 0x35, 0xd4, 0xbd, 0x79, 0x1a, 0xf1, 0x3d,
  0x6b, 0xf0, 0x6e, 0x3e, 0xe5, 0x17, 0x12, 0xbe, 0xb9, 0x50, 0x19, 0xbb,
  0xd2, 0x5f, 0x07, 0x3f, 0x94, 0xb5, 0x48, 0x3d, 0x7d, 0x34, 0x78, 0x3e,
  0x32, 0xe3, 0xf1, 0xbd, 0x28, 0x37, 0xae, 0xbd, 0x28, 0x19, 0x23, 0x3e,
  0x85, 0x41, 0x2e, 0xbe, 0xb8, 0x8d, 0xec, 0x3e, 0x53, 0x81, 0x1f, 0xbe,
  0xa1, 0x81, 0x4e, 0xbd, 0x93, 0xdf, 0xfb, 0x3d, 0xfa, 0x77, 0x16, 0xbe,
  0x05, 0x2d, 0x97, 0xbe, 0x7f, 0x9a, 0x75, 0x3e, 0x98, 0x16, 0x20, 0x3e,
  0x1e, 0xa4, 0xd5, 0x3d, 0x97, 0x6b, 0x1e, 0xbd, 0x31, 0xa4, 0xf8, 0x3e,
  0x3f, 0xe9, 0x4e, 0xbc, 0xd9, 0x64, 0x01, 0x3f, 0xc5, 0xac, 0x5f, 0xbe,
  0x5f, 0x96, 0x89, 0xbd, 0x35, 0x3b, 0x78, 0xbe, 0x3d, 0x03, 0x84, 0x3c,
  0x5f, 0xb7, 0x43, 0xbe, 0x40, 0x63, 0x27, 0x3d, 0x72, 0xeb, 0x27, 0x3e,
  0x7a, 0xf8, 0x69, 0x3e, 0x29, 0xa9, 0x81, 0x3e, 0x2e, 0x99, 0x82, 0x3e,
  0x2f, 0xaf, 0xf9, 0x3e, 0x50, 0x27, 0x57, 0xbd, 0x2c, 0x5b, 0x63, 0xbe,
  0xdd, 0x48, 0x28, 0x3e, 0xa0, 0x7e, 0x32, 0x3e, 0x42, 0xad, 0xa3, 0x3e,
  0xd7, 0xc0, 0xd4, 0x3e, 0x74, 0xbf, 0x6f, 0x3e, 0xdc, 0x13, 0xe0, 0xbd,
  0x8a, 0xec, 0xc3, 0xbc, 0xbb, 0xc5, 0x01, 0x3e, 0x4b, 0x78, 0xbf, 0x3e,
  0xfb, 0xc6, 0xaa, 0xbc, 0x50, 0x6e, 0x1b, 0xbe, 0x69, 0x76, 0x99, 0x3e,
  0x57, 0x7d, 0x50, 0x3d, 0xe7, 0xbd, 0x87, 0xbe, 0x08, 0xae, 0xab, 0xbd,
  0x0c, 0x4d, 0x2a, 0x3f, 0x8d, 0xde, 0xec, 0x3d, 0x20, 0xd0, 0x05, 0x3e,
  0xe7, 0x17, 0xb2, 0x3e, 0x0f, 0xdd, 0x08, 0x3d, 0xfc, 0x56, 0xb4, 0x3e,
  0x1b, 0x38, 0xfb, 0x3e, 0xc5, 0xd0, 0x40, 0x3d, 0xb0, 0xb7, 0x50, 0xbe,
  0x82, 0xb1, 0x57, 0xbe, 0xbb, 0xa1, 0x36, 0x3e, 0xb8, 0xf2, 0x2a, 0xbe,
  0x15, 0xb5, 0x5c, 0x3e, 0x6a, 0x87, 0xd2, 0xbd, 0xf6, 0x63, 0xbe, 0xbd,
  0xd4, 0x07, 0xe5, 0x3e, 0x21, 0x32, 0x39, 0x3e, 0x70, 0x51, 0xae, 0x3e,
  0xdf, 0x9f, 0x17, 0x3d, 0x8d, 0x0d, 0xf8, 0xbd, 0x7d, 0xa9, 0x9e, 0x3d,
  0x75, 0x76, 0x69, 0x3c, 0xb0, 0x6d, 0x23, 0xbe, 0x24, 0xc8, 0xdb, 0x3d,
  0xb6, 0x5e, 0x9a, 0x3e, 0x72, 0x52, 0xc1, 0xbe, 0xe5, 0xa7, 0xf3, 0x3e,
  0xb6, 0xab, 0xf3, 0xbc, 0xff, 0xbc, 0x7a, 0x3d, 0xa8, 0xee, 0x9b, 0x3e,
  0x32, 0x9d, 0x55, 0x3e, 0x05, 0x02, 0xf2, 0xbd, 0x6f, 0x0e, 0x23, 0x3e,
  0xed, 0x03, 0x95, 0x3e, 0x47, 0x53, 0xa5, 0x3c, 0x34, 0x4b, 0xc8, 0x3e,
  0x60, 0x9b, 0x61, 0x3c, 0x10, 0xe1, 0x52, 0xbd, 0x33, 0xcd, 0xb6, 0x3d,
  0x98, 0xad, 0x90, 0x3e, 0x4a, 0x9c, 0x82, 0xbc, 0x6d, 0x15, 0x1d, 0x3e,
  0xf9, 0xec, 0xc3, 0x3e, 0x30, 0x0d, 0x1d, 0x3f, 0x1e, 0x99, 0xf1, 0x3d,
  0x9e, 0x70, 0xa5, 0x3e, 0x77, 0xb7, 0x17, 0x3f, 0x74, 0xb3, 0xbc, 0x3d,
  0x61, 0x55, 0x07, 0xbe, 0x22, 0x53, 0x4d, 0xbe, 0xa0, 0x79, 0xab, 0xbe,
  0xcb, 0xfc, 0xf4, 0x3e, 0xf8, 0x6a, 0xb5, 0x3e, 0xe8, 0xcd, 0xa7, 0x3e,
  0xb4, 0xb1, 0x79, 0x3e, 0xae, 0x82, 0xca, 0xbd, 0x9f, 0x7a, 0x49, 0xbe,
  0x6b, 0x77, 0x09, 0x3e, 0x91, 0xe5, 0x61, 0x3e, 0x3c, 0x99, 0x7e, 0x3d,
  0xa6, 0x60, 0x91, 0x3e, 0x0c, 0x18, 0x13, 0x3e, 0x2d, 0x81, 0xa2, 0xbd,
  0x57, 0xcf, 0x79, 0x3e, 0xc8, 0xfe, 0x5f, 0x3e, 0xd2, 0xfa, 0xfe, 0x3e,
  0x16, 0xe8, 0x80, 0x3d, 0x79, 0xee, 0x24, 0x3e, 0x72, 0xeb, 0x15, 0xbe,
  0x24, 0xe5, 0xa3, 0x3d, 0x3c, 0x80, 0x58, 0x3e, 0x1a, 0x32, 0xdd, 0xbd,
  0x3a, 0x1a, 0x36, 0xbe, 0xce, 0x7c, 0x4b, 0xbe, 0x89, 0x36, 0xdd, 0x3e,
  0xf7, 0x89, 0x99, 0xbd, 0x81, 0xec, 0x6f, 0x3e, 0xa7, 0xe8, 0x98, 0x3e,
  0x13, 0xef, 0xd7, 0xbc, 0xe1, 0xab, 0xbd, 0x3d, 0xf8, 0x72, 0x8f, 0x3e,
  0x18, 0xf3, 0xfc, 0x3e, 0xee, 0x66, 0x21, 0x3d, 0x8a, 0x61, 0x48, 0x3c,
  0x1f, 0xc1, 0x8d, 0xbe, 0x13, 0xc7, 0xfd, 0x3d, 0xa9, 0x11, 0xbe, 0x3c,
  0xcb, 0x1d, 0xaf, 0xbd, 0x38, 0x0d, 0x81, 0x3e, 0xfe, 0x51, 0x60, 0xbe,
  0x94, 0x74, 0x82, 0x3d, 0x72, 0x8c, 0x22, 0x3e, 0x9b, 0x75, 0xf5, 0x3d,
  0xcc, 0x95, 0xe6, 0x3e, 0x74, 0x1d, 0x5b, 0xbe, 0xba, 0xd4, 0x66, 0x3e,
  0x6f, 0x94, 0x43, 0x3e, 0x42, 0x48, 0xbf, 0x3e, 0x14, 0x91, 0xc0, 0xbd,
  0xe0, 0xdc, 0x0c, 0x3f, 0x4f, 0xc1, 0x04, 0xbd, 0xb8, 0x1d, 0x1a, 0xbe,
  0x10, 0xaa, 0x96, 0xbb, 0x6f, 0x68, 0xa9, 0x3e, 0xfd, 0x8c, 0xc1, 0x3d,
  0x14, 0x35, 0x53, 0xbe, 0x7b, 0x5d, 0x1f, 0x3f, 0xc0, 0xd7, 0xb3, 0x3e,
  0xb5, 0xbd, 0xc7, 0x3e, 0xda, 0x99, 0xdd, 0x3e, 0x82, 0xea, 0x27, 0x3e,
  0xde, 0x24, 0x99, 0x3e, 0x5a, 0xe6, 0x8b, 0xbe, 0x0e, 0xd1, 0x5a, 0xbe,
  0xb0, 0xc6, 0x62, 0xbe, 0x0e, 0x08, 0xcc, 0x3e, 0xa7, 0xaa, 0x35, 0x3d,
  0x46, 0x24, 0x18, 0x3e, 0x59, 0x0c, 0xa4, 0x3d, 0x84, 0x7a, 0xe4, 0x3d,
  0xe4, 0xb4, 0x18, 0x3d, 0x1f, 0xd5, 0xb5, 0x3c, 0xc7, 0x23, 0x91, 0x3d,
  0x2e, 0x5a, 0xc0, 0x3d, 0x91, 0xde, 0x62, 0x3e, 0x19, 0x5b, 0x42, 0x3d,
  0x8d, 0x58, 0x8d, 0x3d, 0x59, 0x59, 0x0e, 0xbe, 0xb8, 0x57, 0xc2, 0x3e,
  0xbf, 0xdf, 0x73, 0x3e, 0x89, 0xd5, 0xa3, 0x3e, 0x39, 0x7c, 0x18, 0x3e,
  0x76, 0xce, 0x61, 0xbe, 0x91, 0x92, 0x72, 0xbe, 0xd7, 0x57, 0xae, 0x3c,
  0x87, 0xb0, 0xb2, 0xbd, 0xab, 0x8c, 0xe9, 0xbd, 0xba, 0x21, 0x0a, 0xbe,
  0x7a, 0x50, 0x4b, 0x3d, 0x56, 0x57, 0xa2, 0xbd, 0xe4, 0xe2, 0xa5, 0xbe,
  0xb4, 0x44, 0x6c, 0x3e, 0x87, 0x2b, 0x90, 0xbe, 0x5b, 0xec, 0x97, 0x3d,
  0xaa, 0x56, 0x8f, 0xbe, 0x22, 0x9d, 0xba, 0x3e, 0x8e, 0xab, 0x88, 0x3e,
  0x49, 0x2a, 0xa5, 0x3d, 0x7c, 0xab, 0xba, 0xbb, 0x1d, 0x3a, 0xc1, 0xbe,
  0x74, 0x36, 0x3c, 0xbc, 0xc3, 0xa6, 0xe0, 0x3e, 0xe3, 0x2e, 0xc6, 0xbb,
  0xec, 0x17, 0xb2, 0xbe, 0x1f, 0x48, 0xf7, 0x3e, 0xe3, 0xcb, 0x92, 0xbe,
  0x66, 0x0c, 0xba, 0xbc, 0xfd, 0x6e, 0x5a, 0xbe, 0x94, 0x92, 0x71, 0x3e,
  0xc9, 0x3f, 0xa4, 0xbe, 0x75, 0x80, 0xf5, 0xbd, 0xe4, 0xca, 0x61, 0x3e,
  0x0e, 0xd7, 0x21, 0xbe, 0x64, 0x2c, 0xbe, 0x3e, 0x1b, 0x75, 0x94, 0x3e,
  0x99, 0xb3, 0xe2, 0x3d, 0x46, 0x88, 0x80, 0xbd, 0x7f, 0x6d, 0xc2, 0x3e,
  0xae, 0x6f, 0x4d, 0x3c, 0x5d, 0x08, 0x0f, 0x3e, 0x1c, 0x6f, 0xad, 0x3e,
  0x9e, 0x0c, 0x90, 0xbd, 0x3b, 0x4b, 0xb2, 0xbd, 0x0a, 0x74, 0x2e, 0x3e,
  0x2d, 0xba, 0xe5, 0x3e, 0xef, 0xb8, 0x1e, 0xbe, 0x42, 0x7b, 0x24, 0xbe,
  0xa6, 0xe1, 0x68, 0xbe, 0xb1, 0x29, 0xfc, 0xbe, 0x92, 0xe0, 0x0e, 0x3e,
  0xf8, 0xf1, 0xb2, 0x3d, 0xf0, 0xb5, 0x91, 0xbe, 0x17, 0xaa, 0x0f, 0xbd,
  0x41, 0x7e, 0xaa, 0x3d, 0x68, 0xbb, 0x06, 0xbd, 0xa0, 0x53, 0x6c, 0x3c,
  0xe9, 0x6f, 0x06, 0x3c, 0x53, 0x2b, 0xb2, 0x3d, 0xcc, 0x56, 0xac, 0x3e,
  0x4e, 0xe0, 0xfd, 0x3d, 0xd9, 0x3f, 0x66, 0xbd, 0x2a, 0x47, 0x13, 0x3e,
  0x98, 0x8f, 0x5d, 0x3e, 0x4a, 0x53, 0xe8, 0xbc, 0xec, 0xe4, 0x6d, 0x3c,
  0x19, 0x0d, 0x8d, 0x3e, 0xe7, 0x68, 0xde, 0x3d, 0xfe, 0xb4, 0x0f, 0xbd,
  0x30, 0x1c, 0x46, 0x3e, 0x91, 0x69, 0x26, 0xbe, 0x07, 0xc7, 0x95, 0xbe,
  0x25, 0xbd, 0xfc, 0x3c, 0x1e, 0xe7, 0xe8, 0x3e, 0xcf, 0xff, 0x08, 0x3d,
  0xd0, 0xe0, 0x8e, 0x3e, 0xb5, 0xc7, 0xc9, 0x3e, 0xaf, 0xb9, 0x42, 0xbe,
  0xdf, 0x26, 0x33, 0x3e, 0xd3, 0xb6, 0x5f, 0x3e, 0x9f, 0xa8, 0x97, 0x3e,
  0x32, 0x39, 0xfa, 0x3d, 0xfe, 0xdc, 0x81, 0x3d, 0x93, 0x56, 0xe2, 0x3b,
  0x00, 0x25, 0xe6, 0xbd, 0xfe, 0x8f, 0xc3, 0xbe, 0xae, 0xf1, 0xb0, 0xbd,
  0x00, 0x74, 0x92, 0x3e, 0xba, 0x69, 0xf1, 0xbc, 0x0f, 0x7e, 0xde, 0x3d,
  0x7c, 0x31, 0xb2, 0xbd, 0xd3, 0x28, 0x92, 0xbc, 0xe1, 0xf8, 0x33, 0x3e,
  0x83, 0xfd, 0x87, 0xbe, 0x4d, 0xd3, 0x0b, 0xbe, 0x45, 0x4a, 0x34, 0xbd,
  0xa4, 0x3e, 0x7b, 0x3d, 0xf4, 0x17, 0xe8, 0x3d, 0xf6, 0x7c, 0x6d, 0x3e,
  0x55, 0xdc, 0x61, 0x3e, 0x0b, 0xe3, 0x63, 0x3d, 0x2a, 0x57, 0xd7, 0x3d,
  0x93, 0xc2, 0x78, 0x3e, 0xd8, 0xc4, 0xd2, 0xbd, 0x74, 0xec, 0x49, 0x3d,
  0xa0, 0x5f, 0xa3, 0x3e, 0xcf, 0x95, 0x09, 0x3f, 0x2e, 0x3e, 0xc3, 0x3e,
  0x43, 0xb9, 0xa9, 0x3e, 0x96, 0xd9, 0xd0, 0x3e, 0x60, 0x38, 0x9c, 0x3e,
  0x39, 0xfa, 0x6b, 0x3d, 0x18, 0x71, 0x0a, 0xbe, 0x47, 0xa5, 0x18, 0xbe,
  0x5c, 0xc4, 0x93, 0x3e, 0x98, 0x72, 0xd7, 0x3e, 0x7d, 0xbe, 0x35, 0x3e,
  0xec, 0x18, 0xaa, 0x3e, 0xd5, 0xe0, 0x06, 0x3e, 0x4b, 0x5f, 0xd4, 0x3e,
  0x2a, 0xb0, 0x30, 0xbe, 0xa9, 0xb5, 0xe4, 0x3e, 0xfc, 0xc8, 0x1e, 0x3e,
  0xfe, 0xc4, 0x08, 0xbe, 0x93, 0xab, 0xb4, 0xbe, 0xdc, 0xe9, 0x3e, 0xbd,
  0x00, 0x00, 0x01, 0xbe, 0x2f, 0x1e, 0x2c, 0xbf, 0xa8, 0xeb, 0x6e, 0xbe,
  0xb5, 0xcf, 0x85, 0xbe, 0x64, 0xe3, 0xb0, 0xbe, 0xf1, 0xb3, 0x44, 0xbe,
  0x74, 0x4c, 0x22, 0xbe, 0x1f, 0x17, 0x56, 0xbe, 0x1e, 0x60, 0x99, 0x3d,
  0xdc, 0xe5, 0xe1, 0x3d, 0x6f, 0x7f, 0xa4, 0x3e, 0x2d, 0x35, 0xe2, 0xbe,
  0xb6, 0xb9, 0xdd, 0x3e, 0x2c, 0x13, 0xa8, 0x3d, 0xbf, 0x2c, 0x50, 0xbe,
  0xac, 0x37, 0x6b, 0x3e, 0xb4, 0xf7, 0xca, 0x3d, 0x76, 0xb5, 0xe8, 0xbd,
  0x2f, 0x92, 0xc5, 0xbe, 0x43, 0x8d, 0x96, 0xbe, 0x43, 0x6e, 0xd3, 0x3b,
  0xe2, 0x7e, 0xed, 0xbc, 0x76, 0x1f, 0xc9, 0x3b, 0xf3, 0x5d, 0x29, 0x3d,
  0xb4, 0x90, 0xc1, 0x3d, 0x28, 0xdc, 0xfc, 0x3d, 0x84, 0xc3, 0x62, 0x3b,
  0xe6, 0xba, 0xb2, 0xbe, 0x90, 0x18, 0x1b, 0x3e, 0x91, 0x77, 0x4f, 0x3e,
  0x81, 0xf9, 0x83, 0xbe, 0xdc, 0x0e, 0x42, 0x3d, 0x16, 0x4b, 0x93, 0xbd,
  0x2c, 0xe1, 0x85, 0x3e, 0x3b, 0xdd, 0xbf, 0xbe, 0xac, 0xfa, 0x53, 0x3e,
  0xfa, 0xc8, 0x05, 0xbf, 0x88, 0x12, 0x9c, 0xbe, 0x92, 0x7e, 0xb6, 0xbd,
  0x9d, 0xa4, 0x09, 0x3e, 0xd4, 0x61, 0x67, 0xbd, 0x08, 0x27, 0x81, 0x3e,
  0x50, 0xf7, 0x97, 0x3e, 0xa3, 0x6f, 0xfe, 0xbe, 0x86, 0xeb, 0x7b, 0xbe,
  0xfd, 0x98, 0x9a, 0xbe, 0xcc, 0xed, 0xdd, 0xbe, 0xf2, 0x5c, 0x85, 0xbe,
  0xa1, 0xc8, 0xc3, 0xbe, 0x8d, 0xe4, 0x0a, 0x3e, 0xa8, 0x04, 0x17, 0x3e,
  0x4c, 0x6d, 0x6b, 0x3e, 0xc4, 0x5c, 0x9c, 0xbe, 0xcc, 0x32, 0x82, 0xbd,
  0xf5, 0xd2, 0x32, 0xbe, 0x82, 0xa6, 0x97, 0x3d, 0x96, 0x92, 0xc5, 0x3e,
  0x96, 0xea, 0x4d, 0xba, 0x58, 0x80, 0x9b, 0xbe, 0xe1, 0x87, 0xcb, 0x3d,
  0x3d, 0x9f, 0xbc, 0x3e, 0x4d, 0x7e, 0xc7, 0xbc, 0x7b, 0xed, 0x9c, 0x3d,
  0xa2, 0x8c, 0xfa, 0x3c, 0xbd, 0x3a, 0x1d, 0x3e, 0x78, 0x14, 0xb0, 0xbe,
  0x7b, 0x72, 0x0e, 0xbf, 0x33, 0x32, 0x69, 0xbe, 0xfc, 0xe6, 0xc1, 0xbe,
  0xef, 0x2b, 0x4a, 0xbe, 0xd3, 0xbb, 0x52, 0xbe, 0x6b, 0x8d, 0x98, 0xbd,
  0x0e, 0xc3, 0xe3, 0x3c, 0x2d, 0xef, 0xbb, 0x3e, 0x37, 0xf5, 0xf7, 0x3c,
  0xef, 0xf1, 0xb3, 0xbe, 0x01, 0x7a, 0xb5, 0x3e, 0x79, 0x6d, 0x4a, 0xbe,
  0x73, 0x95, 0x9c, 0xbe, 0x0c, 0x53, 0x7a, 0x3e, 0x09, 0xfd, 0x12, 0x3e,
  0x12, 0x70, 0x94, 0xbe, 0x7f, 0x80, 0x36, 0xbf, 0xd2, 0x7e, 0x04, 0x3e,
  0x44, 0xf2, 0xa2, 0xbd, 0xce, 0x16, 0x31, 0x3e, 0x50, 0x53, 0x0d, 0xbe,
  0x64, 0x86, 0xcc, 0x3e, 0x29, 0x3b, 0x7b, 0x3d, 0x37, 0xf9, 0xe9, 0xbc,
  0x21, 0x48, 0x9d, 0x3e, 0xc4, 0x2b, 0xb5, 0xbe, 0x6d, 0x77, 0x9c, 0xbc,
  0xa1, 0xbd, 0xa0, 0x3e, 0x8f, 0x70, 0x26, 0xbe, 0xf2, 0xc9, 0x4b, 0x3e,
  0x83, 0xec, 0x80, 0x3e, 0x5e, 0x83, 0x66, 0x3e, 0x6a, 0x80, 0x9b, 0xbe,
  0xcf, 0x5e, 0x02, 0x3e, 0x82, 0x61, 0x09, 0xbf, 0xcb, 0xf4, 0x86, 0xbe,
  0x39, 0x00, 0xe5, 0xbc, 0x3e, 0xe2, 0x89, 0x3e, 0x6e, 0x91, 0x6e, 0xbe,
  0xee, 0x24, 0xb8, 0x3d, 0x5b, 0x15, 0xef, 0x3d, 0x63, 0x25, 0x86, 0xbe,
  0xbc, 0xfe, 0x96, 0xbe, 0x6c, 0xad, 0x5f, 0xbe, 0x1a, 0xfa, 0x91, 0xbe,
  0x2b, 0xca, 0x14, 0xbf, 0x1c, 0x83, 0x26, 0xbf, 0xfd, 0x05, 0x0b, 0xbd,
  0x14, 0xc9, 0xd5, 0x3d, 0xf1, 0x0f, 0x84, 0x3d, 0x58, 0xfd, 0x66, 0xbe,
  0xdc, 0xcb, 0x99, 0xbe, 0xb9, 0x4f, 0x59, 0x3e, 0x38, 0x9e, 0xbd, 0xbe,
  0x02, 0x7d, 0x27, 0x3e, 0xee, 0x4d, 0x91, 0xbe, 0xe1, 0x24, 0x7d, 0xbd,
  0xb6, 0xe5, 0x11, 0x3c, 0xf7, 0x85, 0x3e, 0xbe, 0x38, 0xf5, 0xe8, 0xbe,
  0x2f, 0xb1, 0x8f, 0xbe, 0x47, 0xc7, 0x5a, 0xbe, 0x28, 0xc5, 0x11, 0xbe,
  0xcc, 0x6b, 0xee, 0x3d, 0xef, 0x2a, 0x05, 0xbd, 0xe1, 0x7d, 0x9b, 0xbd,
  0x61, 0xc1, 0xb4, 0xbd, 0x40, 0x3c, 0x0c, 0x3e, 0x05, 0x5a, 0x48, 0x3e,
  0xbf, 0x12, 0xd6, 0x3d, 0x65, 0x2a, 0x1f, 0x3e, 0x7c, 0xc1, 0xdd, 0xbd,
  0xdd, 0xa0, 0x41, 0x3e, 0x97, 0x90, 0x69, 0xbd, 0x49, 0xf0, 0x9b, 0xbe,
  0x45, 0x15, 0x49, 0x3e, 0x46, 0x08, 0x79, 0x3d, 0x95, 0xbb, 0x27, 0x3e,
  0x9f, 0x2d, 0x27, 0x3e, 0x43, 0x46, 0x13, 0xbe, 0x23, 0x2d, 0x62, 0x3e,
  0xb6, 0x13, 0xbe, 0xbc, 0xf3, 0x6d, 0xa8, 0x3e, 0xa3, 0xbc, 0x19, 0x3d,
  0x1b, 0xc5, 0xf3, 0xba, 0xa4, 0xad, 0x25, 0xbe, 0x84, 0xba, 0xe3, 0xbe,
  0x2c, 0x2b, 0x21, 0x3d, 0x9c, 0xa8, 0x59, 0xbe, 0x4b, 0x1e, 0x88, 0xbd,
  0x53, 0xfd, 0x15, 0x3e, 0xcd, 0xd8, 0x61, 0x3d, 0x74, 0x69, 0xd7, 0xbd,
  0xc2, 0xf9, 0xe4, 0xbd, 0xef, 0xa1, 0xee, 0x3d, 0x6c, 0x43, 0xf8, 0x3d,
  0x95, 0xcd, 0xcd, 0xbe, 0xac, 0x79, 0xb0, 0xbd, 0x3c, 0x23, 0x4d, 0xbd,
  0x4b, 0xc5, 0x19, 0x3e, 0xb0, 0x9f, 0x98, 0x3d, 0xf8, 0x2b, 0x6c, 0x3e,
  0x51, 0x43, 0x85, 0x3e, 0x14, 0xa0, 0xe3, 0xbb, 0xb7, 0x3e, 0x74, 0x3d,
  0xc1, 0xfa, 0xa2, 0xbb, 0x8b, 0x2c, 0xb1, 0x3e, 0xd2, 0x56, 0x63, 0x3e,
  0x60, 0xb1, 0x40, 0xbe, 0x98, 0xc9, 0x8b, 0x3d, 0x88, 0x3e, 0x18, 0xbe,
  0x74, 0x6f, 0xb5, 0xbe, 0xde, 0xb9, 0x37, 0xbe, 0xd7, 0xb4, 0x96, 0xbd,
  0xa2, 0x66, 0x61, 0x3d, 0xda, 0x85, 0xc6, 0x3d, 0xad, 0xb0, 0x66, 0x3d,
  0x6a, 0x6f, 0x92, 0x3e, 0x03, 0xcb, 0x2c, 0x3c, 0x35, 0x7e, 0xbc, 0xbc,
  0x2d, 0xc2, 0x78, 0xbe, 0x7f, 0x8e, 0xbd, 0xbe, 0x45, 0xea, 0x8a, 0x3b,
  0xf4, 0xe9, 0x28, 0xbe, 0x99, 0x94, 0x5a, 0x3d, 0xfd, 0xb9, 0xa7, 0x3d,
  0xbf, 0x57, 0x48, 0xbd, 0x8b, 0xda, 0x67, 0xbe, 0x40, 0x26, 0x9d, 0x3d,
  0x88, 0x6f, 0xc2, 0x3d, 0xe0, 0x72, 0xa6, 0xbb, 0xf4, 0xc5, 0x8a, 0x3d,
  0xac, 0x5a, 0xe0, 0xbe, 0xd4, 0xa0, 0x67, 0x3d, 0x6a, 0xe7, 0xd3, 0x3b,
  0x8c, 0xc2, 0xa0, 0x3e, 0x86, 0xbc, 0x0c, 0x3e, 0x25, 0x13, 0x8a, 0xbe,
  0x60, 0x64, 0x90, 0xbd, 0x5e, 0x3a, 0x87, 0x3d, 0xe8, 0xa8, 0x8b, 0xbd,
  0x76, 0xe2, 0x3e, 0xbd, 0xd5, 0xcb, 0x95, 0x3e, 0xdd, 0x13, 0x06, 0xbf,
  0x16, 0xae, 0x4b, 0x3d, 0xa5, 0xa2, 0xee, 0xbc, 0x93, 0xd1, 0xcc, 0xbd,
  0x83, 0x38, 0xc0, 0xbe, 0x67, 0x7e, 0x08, 0xbd, 0x0c, 0x49, 0x0b, 0x3e,
  0x4f, 0x6c, 0x55, 0x3e, 0xfa, 0xd1, 0xad, 0xbd, 0xff, 0x0f, 0xd3, 0xbd,
  0x7e, 0x54, 0x7b, 0xbd, 0x3f, 0x6b, 0x50, 0xbe, 0x8f, 0x6c, 0xd5, 0xbd,
  0xb2, 0x5c, 0x29, 0xbf, 0xe3, 0xd6, 0x9b, 0xbe, 0x84, 0x09, 0x0b, 0xbe,
  0x49, 0x11, 0x19, 0xbe, 0xfe, 0x99, 0xb7, 0xbd, 0xb1, 0xd8, 0x87, 0xbd,
  0x94, 0xf7, 0xb6, 0x3c, 0x99, 0x05, 0x80, 0xbd, 0x4e, 0x3a, 0x00, 0xbe,
  0xdd, 0xab, 0xd7, 0x3c, 0x47, 0x07, 0x8d, 0xbe, 0x2d, 0xd9, 0x93, 0xbe,
  0xfe, 0xb9, 0x5d, 0x3c, 0x15, 0x3d, 0x3a, 0x3e, 0xba, 0x10, 0x67, 0xbd,
  0x7d, 0x38, 0x4f, 0x3d, 0xa7, 0xd0, 0xf1, 0x3c, 0x77, 0x8d, 0x1a, 0xbe,
  0x22, 0xd8, 0xe4, 0xbd, 0x62, 0x41, 0x86, 0x3e, 0x0e, 0x55, 0x96, 0xbe,
  0x1d, 0x46, 0xb5, 0x3b, 0x2d, 0xaa, 0x10, 0xbe, 0xbe, 0xbf, 0xb4, 0xbe,
  0x31, 0x80, 0x2e, 0xbe, 0xae, 0xda, 0x88, 0xbd, 0x0a, 0x88, 0xa3, 0x3e,
  0x84, 0xc6, 0xcc, 0x3d, 0xb6, 0xba, 0x67, 0xbe, 0x4e, 0x80, 0x8b, 0x3d,
  0x4d, 0x11, 0xb6, 0x3e, 0x3e, 0x76, 0xa2, 0xbd, 0x85, 0x23, 0xcd, 0xbe,
  0x2c, 0x87, 0xab, 0xbd, 0x1c, 0x92, 0x4b, 0x3e, 0xd9, 0xf2, 0x8c, 0xbe,
  0xe4, 0xbc, 0xa2, 0xbe, 0xe2, 0xfa, 0x20, 0xbe, 0xd3, 0x37, 0xd6, 0xbb,
  0x7d, 0x37, 0x4b, 0x3e, 0xa4, 0x55, 0xf3, 0x3c, 0x35, 0xbe, 0x6a, 0x3e,
  0x01, 0x61, 0x41, 0x3e, 0x7b, 0xd9, 0xfc, 0x3d, 0x6e, 0x56, 0xbc, 0x3e,
  0xd7, 0x85, 0x57, 0xbe, 0x5e, 0x8c, 0x8b, 0x3e, 0x08, 0xa0, 0xcc, 0xbd,
  0x66, 0x3e, 0x92, 0x3e, 0x93, 0xe1, 0x37, 0x3e, 0x6b, 0xdf, 0x3d, 0x3e,
  0xf9, 0xf7, 0xb7, 0x3c, 0xf8, 0x76, 0x63, 0xbd, 0x75, 0x72, 0x94, 0x3b,
  0xeb, 0x86, 0xbd, 0x3e, 0x3c, 0x4c, 0x6a, 0x3e, 0x65, 0xde, 0xc8, 0x3e,
  0x1b, 0xf5, 0xb9, 0x3e, 0x8d, 0xa7, 0x2b, 0xbe, 0x61, 0xb6, 0x71, 0x3e,
  0xac, 0x7d, 0x8a, 0x3e, 0xfb, 0x46, 0x6d, 0xbe, 0x04, 0xd5, 0x81, 0x3e,
  0xfa, 0xa9, 0xd0, 0x3d, 0x17, 0x8a, 0xa4, 0xbe, 0xe5, 0x13, 0xbe, 0xbd,
  0xd2, 0x95, 0x9b, 0x3e, 0xf6, 0x8e, 0x39, 0xbe, 0xac, 0x29, 0x9b, 0xbe,
  0xb6, 0x32, 0x31, 0x3e, 0x5d, 0xa2, 0x9d, 0xbe, 0x78, 0x32, 0x31, 0x3e,
  0x7b, 0x02, 0xbc, 0x3d, 0x80, 0x80, 0x92, 0x3e, 0x5c, 0xd5, 0x91, 0xbd,
  0x6e, 0x9b, 0x1a, 0x3e, 0xed, 0x4f, 0xa0, 0xbe, 0x02, 0xf0, 0xdd, 0xbb,
  0x45, 0x9f, 0x4e, 0xbd, 0x56, 0xdf, 0xfb, 0x3d, 0x24, 0xc3, 0x83, 0xbe,
  0x80, 0x20, 0xee, 0xbe, 0x3d, 0x22, 0x84, 0xbd, 0x4c, 0x8f, 0x8b, 0x3e,
  0x4e, 0xee, 0xe0, 0x3c, 0x2f, 0x3f, 0xa1, 0x3e, 0x13, 0x37, 0x14, 0xbe,
  0xa4, 0xbd, 0x8b, 0xbe, 0x30, 0xa7, 0x07, 0x3e, 0x1a, 0xc7, 0x26, 0xbe,
  0x4e, 0x23, 0xe0, 0x3d, 0x8c, 0xc7, 0x85, 0xbd, 0xf8, 0xfb, 0x4a, 0xbe,
  0x93, 0x8c, 0x3d, 0xbd, 0xef, 0x55, 0xc9, 0x3d, 0x65, 0x91, 0xf5, 0x3d,
  0x00, 0x03, 0x19, 0xbd, 0x72, 0xd2, 0x85, 0x3e, 0xe7, 0x74, 0x09, 0xbd,
  0x7c, 0xe0, 0xe6, 0xbd, 0x57, 0xc1, 0x92, 0xbe, 0x59, 0x91, 0x0f, 0x3e,
  0x38, 0xc0, 0x32, 0xbe, 0xb2, 0x45, 0xa8, 0x3e, 0xb0, 0xd8, 0x7d, 0xbe,
  0x01, 0xc1, 0xa0, 0x3e, 0x2f, 0xe5, 0x99, 0xbd, 0xbd, 0x20, 0xa1, 0x3d,
  0x5a, 0x3d, 0x9f, 0x3e, 0xd9, 0x6b, 0x67, 0xbe, 0x90, 0x7b, 0x0e, 0x3d,
  0xe5, 0x1a, 0x64, 0x3e, 0xc6, 0x48, 0x04, 0x3e, 0x8a, 0x98, 0x59, 0xbd,
  0xc2, 0xee, 0x9b, 0x3e, 0x0a, 0x99, 0x9f, 0xbd, 0xcc, 0xcb, 0x90, 0x3e,
  0x0b, 0x82, 0x14, 0x3e, 0xb9, 0x8c, 0xc2, 0x3e, 0x52, 0x16, 0x5d, 0x3e,
  0xd5, 0x64, 0xe5, 0x3e, 0x37, 0x4c, 0x2a, 0xbe, 0xde, 0x16, 0xbf, 0xbe,
  0x18, 0xe8, 0x9a, 0x3e, 0xcd, 0xef, 0x38, 0xbe, 0x31, 0xfa, 0x72, 0xbe,
  0xf6, 0xad, 0x93, 0x3e, 0xaa, 0xd1, 0x1b, 0xbe, 0xe7, 0x14, 0xaf, 0x3d,
  0x6d, 0xe8, 0xaf, 0x3c, 0xe6, 0xd4, 0x80, 0x3e, 0x3a, 0x87, 0x3e, 0xbe,
  0xfc, 0xb6, 0x15, 0x3e, 0xc7, 0x6f, 0xb4, 0x3d, 0x83, 0x02, 0xa1, 0x3c,
  0xf1, 0x4e, 0x8e, 0xbc, 0xc6, 0x15, 0xa7, 0x3e, 0x7d, 0x22, 0x99, 0x3e,
  0x3f, 0xc8, 0xc0, 0xbd, 0xcd, 0x3d, 0x96, 0xbd, 0xa5, 0x9f, 0xc6, 0xbd,
  0xa7, 0xc5, 0xb5, 0x3e, 0x59, 0x5c, 0x3b, 0x3e, 0xd4, 0xe6, 0xa4, 0x3e,
  0xbd, 0xc5, 0x36, 0xbd, 0x8d, 0xf2, 0x46, 0x3e, 0x19, 0x0d, 0x7b, 0xbd,
  0x7a, 0x3c, 0x2c, 0xbe, 0x56, 0x59, 0x3e, 0x3d, 0x04, 0xd6, 0x05, 0xbe,
  0xfa, 0xd4, 0x8f, 0xbe, 0xd4, 0xbf, 0x47, 0xbe, 0xe5, 0x86, 0x3f, 0x3e,
  0xb9, 0x58, 0x50, 0xbd, 0xf8, 0xdb, 0xc1, 0xbd, 0x6b, 0x21, 0x54, 0x3e,
  0xc1, 0xc7, 0x91, 0xbd, 0x8a, 0x99, 0x87, 0x3d, 0x28, 0x8a, 0x88, 0xbd,
  0xe1, 0xe1, 0x4c, 0xbe, 0x72, 0x0e, 0x7b, 0x39, 0xeb, 0xcd, 0x14, 0x3e,
  0x6c, 0x40, 0x96, 0x3d, 0xae, 0x30, 0x05, 0xbf, 0x46, 0xb3, 0xba, 0xbe,
  0xcd, 0x9f, 0x71, 0xbe, 0x74, 0x55, 0xba, 0xbe, 0x60, 0xdb, 0x4c, 0x3e,
  0x72, 0xac, 0x78, 0xbd, 0xa1, 0x5d, 0xd8, 0xbe, 0x2c, 0x23, 0x3b, 0xbc,
  0x1c, 0xc7, 0xb9, 0x3e, 0x63, 0x04, 0xe7, 0x3d, 0x1d, 0xab, 0xfc, 0xbe,
  0xf1, 0x49, 0xfb, 0x3d, 0xb4, 0x60, 0x13, 0xbd, 0x56, 0x2b, 0xb3, 0xbd,
  0xce, 0x62, 0x30, 0x3e, 0x78, 0x68, 0x7e, 0xbe, 0x51, 0x2d, 0x09, 0x3e,
  0x44, 0x18, 0xaa, 0xbe, 0xc7, 0x55, 0xbd, 0xbe, 0x2a, 0x74, 0x9e, 0xbe,
  0xbd, 0x0a, 0xac, 0x3d, 0x68, 0xfe, 0x89, 0x3e, 0x90, 0xa2, 0xda, 0x3e,
  0xc0, 0x6d, 0x9f, 0xbc, 0x80, 0x45, 0x94, 0xbe, 0x15, 0x1f, 0xc1, 0x3d,
  0x61, 0x67, 0x34, 0x3c, 0x0a, 0x42, 0x91, 0x3e, 0x2b, 0x75, 0xa9, 0x3d,
  0xfc, 0x44, 0xd2, 0xbd, 0xc4, 0x99, 0xe3, 0x3e, 0xce, 0xbb, 0x5b, 0x3e,
  0x1e, 0x7a, 0x10, 0xbe, 0x15, 0x0e, 0x4c, 0xbd, 0xe7, 0x25, 0x4b, 0x3e,
  0xca, 0x76, 0x8b, 0xbe, 0x1a, 0xb0, 0x91, 0x3b, 0xb9, 0xad, 0xef, 0x3c,
  0xea, 0xd8, 0x0c, 0xbe, 0x5b, 0x8f, 0xc1, 0x3d, 0x76, 0x33, 0x82, 0x3e,
  0xe6, 0x0c, 0xf2, 0x3d, 0x0f, 0x9e, 0xbe, 0xbe, 0x99, 0x52, 0xe1, 0xbe,
  0x21, 0xee, 0x17, 0xbe, 0xb4, 0xf1, 0xe9, 0xbe, 0x7c, 0x84, 0x27, 0xbf,
  0x5e, 0xed, 0xce, 0x3b, 0x9b, 0x7d, 0xe0, 0x3e, 0x1b, 0xb8, 0x58, 0xbd,
  0x78, 0xfa, 0xa3, 0x3e, 0xef, 0xdd, 0x39, 0xbe, 0x56, 0x4f, 0x63, 0xbe,
  0x2a, 0x36, 0x19, 0xbe, 0xb2, 0x2f, 0xb4, 0xbe, 0x29, 0x9a, 0x9f, 0x3e,
  0xdc, 0xaa, 0x26, 0x3c, 0xc3, 0x7d, 0x26, 0xbe, 0xf0, 0x13, 0xbf, 0x3d,
  0x6e, 0x8c, 0x8e, 0x3e, 0xf2, 0x0f, 0x64, 0xbe, 0x99, 0xa9, 0x3e, 0x3d,
  0xe9, 0xef, 0xb4, 0xbc, 0x96, 0xa5, 0xc5, 0x3e, 0xa0, 0x39, 0x31, 0xbe,
  0x64, 0x53, 0x50, 0xbe, 0xfd, 0xc9, 0x12, 0x3e, 0x6d, 0x54, 0xdb, 0x3b,
  0x06, 0x29, 0x36, 0x3d, 0xca, 0x1e, 0xa9, 0xbc, 0x39, 0xfe, 0x4f, 0x3d,
  0x09, 0xb1, 0x73, 0x3e, 0xd8, 0xcc, 0x14, 0x3d, 0xe4, 0x30, 0xeb, 0x3e,
  0x27, 0x62, 0x38, 0xbe, 0x54, 0xf4, 0xcf, 0x3e, 0xcd, 0xc4, 0x5e, 0x3d,
  0x09, 0x4e, 0xed, 0xbd, 0xd6, 0x29, 0x76, 0x3e, 0xaf, 0x98, 0x1a, 0x3e,
  0xf5, 0x1c, 0xc0, 0xbe, 0xf9, 0x0e, 0x83, 0xbd, 0x4b, 0x46, 0xf8, 0xbd,
  0x60, 0xc3, 0xaf, 0xbd, 0xf6, 0xa2, 0x8d, 0x3e, 0x2c, 0x0c, 0xda, 0x3e,
  0xed, 0x1d, 0xbf, 0x3d, 0x9e, 0x70, 0x7b, 0xbe, 0x32, 0xe2, 0x0a, 0xbd,
  0x2c, 0x72, 0xa4, 0x3d, 0x58, 0xbe, 0xaf, 0xbd, 0x8f, 0x46, 0x1c, 0x3e,
  0xa5, 0x79, 0x86, 0x3e, 0xd3, 0xb8, 0xed, 0xbe, 0x57, 0x23, 0x0b, 0xbd,
  0x46, 0x80, 0x62, 0x3e, 0x1b, 0xd9, 0x0b, 0x3e, 0xfd, 0xba, 0x4c, 0xbe,
  0x6c, 0x5d, 0xd5, 0x3e, 0xaa, 0xbf, 0xab, 0xbe, 0x01, 0x9d, 0x22, 0xbe,
  0xf9, 0xc3, 0xb0, 0x3e, 0x29, 0x41, 0x8a, 0x3d, 0x84, 0x98, 0x58, 0xbe,
  0x53, 0x82, 0x0d, 0x3e, 0xd9, 0xd9, 0x85, 0xbe, 0x91, 0x9f, 0x3a, 0xbe,
  0x5a, 0x53, 0xb8, 0xbd, 0xad, 0xa5, 0x07, 0x3e, 0xff, 0x3e, 0x21, 0xbe,
  0x6a, 0x2a, 0xc9, 0xbe, 0xe5, 0x81, 0x17, 0x3e, 0x1e, 0xf1, 0x94, 0x3d,
  0xf0, 0x9f, 0xaf, 0x3e, 0xde, 0x7d, 0xd0, 0x3e, 0x35, 0xac, 0xe5, 0xbc,
  0x80, 0xd4, 0xd0, 0xbd, 0x64, 0x4e, 0x37, 0xbe, 0x69, 0x40, 0x46, 0x3e,
  0xf4, 0xa7, 0xfe, 0x3c, 0x6f, 0x29, 0x28, 0xbe, 0xa4, 0x38, 0x16, 0xbd,
  0xa9, 0xd8, 0x8c, 0x3e, 0x87, 0xe5, 0x68, 0xbd, 0xd3, 0x84, 0xd0, 0x3e,
  0x0f, 0xfb, 0xe5, 0x3d, 0xa9, 0x97, 0x42, 0xbe, 0xf5, 0x66, 0xf8, 0x3c,
  0x68, 0x45, 0xa7, 0x3e, 0x71, 0x64, 0xb1, 0x3e, 0x51, 0x75, 0x5a, 0x3e,
  0xe6, 0x45, 0x3f, 0x3e, 0xa4, 0x96, 0x43, 0xbe, 0x40, 0x5e, 0x6f, 0x3d,
  0x5c, 0xff, 0x2f, 0x3e, 0x4e, 0xec, 0xf7, 0xbc, 0x2f, 0xba, 0x29, 0xbe,
  0x94, 0x34, 0x3f, 0x3d, 0x14, 0x87, 0xa2, 0x3d, 0xfe, 0x54, 0x11, 0x3d,
  0xfd, 0x7a, 0xbe, 0x3e, 0xd3, 0x20, 0x32, 0xbe, 0xb9, 0xdf, 0x1c, 0x3e,
  0x0a, 0x03, 0xd8, 0xbd, 0xc6, 0xc7, 0xf1, 0x3e, 0xaa, 0x84, 0xe0, 0x3e,
  0x3d, 0x49, 0x2b, 0x3c, 0x62, 0x51, 0x56, 0x3e, 0xe5, 0xa0, 0xa2, 0xbd,
  0x99, 0x5e, 0x6b, 0xbe, 0xaa, 0x22, 0x8b, 0xbd, 0x53, 0xa3, 0x0b, 0x3e,
  0xef, 0xe1, 0x6e, 0x3d, 0xe6, 0xfd, 0x15, 0xbe, 0xdb, 0xb5, 0x05, 0x3d,
  0x54, 0x1e, 0x74, 0x3d, 0xe8, 0x14, 0x71, 0xbd, 0x4a, 0x82, 0xed, 0x3e,
  0x21, 0xcc, 0xeb, 0xbd, 0x26, 0x07, 0x76, 0x3e, 0x55, 0x2b, 0xa6, 0x3e,
  0x0b, 0x4d, 0x04, 0x3f, 0x00, 0x9c, 0x95, 0x3d, 0xbe, 0x70, 0x2b, 0x3d,
  0xda, 0xf9, 0xbd, 0x3d, 0x1e, 0xf9, 0x45, 0xbe, 0xdb, 0xd7, 0x47, 0x3d,
  0x74, 0xd8, 0x20, 0x3d, 0xb4, 0xce, 0x0b, 0xbe, 0xff, 0x04, 0xac, 0x3e,
  0x42, 0x74, 0xbe, 0x3e, 0x6e, 0xd0, 0x4b, 0x3e, 0x55, 0x55, 0x1e, 0x3e,
  0x82, 0x77, 0x87, 0x3e, 0x3d, 0xa5, 0x89, 0x3e, 0x02, 0xb8, 0xab, 0x3e,
  0xd7, 0x9e, 0x94, 0xbe, 0x7b, 0xf7, 0x28, 0xbe, 0xb6, 0xe1, 0x11, 0xbe,
  0xf1, 0x7a, 0xb5, 0x3e, 0x95, 0x58, 0x38, 0x3b, 0x7d, 0xf0, 0x63, 0x3e,
  0xad, 0xf6, 0x12, 0x3e, 0x5e, 0x90, 0x63, 0xbe, 0x8c, 0x18, 0xf6, 0x3d,
  0x21, 0x34, 0x18, 0x3e, 0xf4, 0x75, 0x6d, 0xbe, 0x20, 0x7f, 0xbf, 0x3e,
  0x11, 0xf1, 0xa1, 0xbe, 0x6f, 0x31, 0x29, 0xbe, 0x20, 0x72, 0x9e, 0x3e,
  0xea, 0xe9, 0x9c, 0x3e, 0xf1, 0xc4, 0x78, 0x3d, 0x3c, 0x42, 0x2c, 0xbe,
  0x3c, 0x01, 0x41, 0xbe, 0xfd, 0xef, 0x1b, 0x3e, 0x1b, 0x50, 0x48, 0x3e,
  0x81, 0xcb, 0x0d, 0xbe, 0xaa, 0x43, 0x52, 0x3d, 0x0f, 0x99, 0xb8, 0xbd,
  0x39, 0xe6, 0x74, 0x3d, 0x6a, 0x1c, 0xc2, 0x3e, 0x34, 0xbb, 0xa8, 0xbe,
  0xac, 0x00, 0x5f, 0x3e, 0x47, 0xac, 0x10, 0xbe, 0x28, 0xe4, 0xcb, 0x3d,
  0x43, 0x57, 0x72, 0x3e, 0x51, 0x8f, 0x86, 0x3e, 0x38, 0xbc, 0xbf, 0xbd,
  0x2f, 0x4c, 0xf4, 0x3d, 0xf5, 0x2e, 0x60, 0x3e, 0x81, 0x26, 0x93, 0x3e,
  0xc8, 0xf4, 0x06, 0xbe, 0x81, 0x1a, 0xa4, 0x3e, 0xee, 0xdc, 0x39, 0x3e,
  0xf8, 0x4d, 0xa2, 0xbe, 0xdd, 0x7e, 0x5d, 0x3e, 0x48, 0x75, 0x8a, 0xbd,
  0xdc, 0x3c, 0xac, 0xbe, 0x96, 0x42, 0x1a, 0x3e, 0x8f, 0xef, 0x07, 0x3e,
  0x43, 0xcc, 0x69, 0xbd, 0x8c, 0x61, 0x98, 0xbe, 0xb9, 0xff, 0x01, 0x3d,
  0x02, 0x9e, 0xcd, 0xbb, 0x34, 0x9f, 0x04, 0xbe, 0xef, 0xe8, 0x8a, 0x3e,
  0x08, 0x03, 0x10, 0xbe, 0xbd, 0x0b, 0xda, 0x3d, 0x15, 0x1f, 0x2f, 0x3e,
  0x00, 0x3c, 0xe1, 0x3e, 0xab, 0xd6, 0x96, 0xbd, 0x45, 0xfc, 0x67, 0x3e,
  0xe4, 0x93, 0x11, 0x3c, 0xc3, 0xb5, 0x3a, 0x3e, 0x5e, 0x60, 0x04, 0x3e,
  0xaf, 0x60, 0xa4, 0x3d, 0x34, 0xbb, 0x87, 0x3d, 0x57, 0x54, 0x52, 0xbe,
  0xf8, 0xcb, 0x1c, 0xbe, 0x90, 0x4e, 0x5d, 0xbd, 0x54, 0x3e, 0xbb, 0x3e,
  0x18, 0x4f, 0xca, 0x3e, 0x2c, 0x5c, 0x20, 0xbe, 0x93, 0xe7, 0x93, 0xbe,
  0x98, 0x6c, 0x61, 0x3e, 0xfb, 0x1a, 0xa5, 0xbd, 0xb1, 0xdf, 0xd9, 0x3e,
  0xe3, 0x64, 0x32, 0xbb, 0x53, 0x97, 0x56, 0x3e, 0x91, 0xa1, 0x44, 0xbb,
  0xa1, 0xe2, 0x84, 0xbd, 0x10, 0x6b, 0x00, 0x3e, 0x8a, 0xe8, 0x45, 0x3e,
  0x39, 0x94, 0xc5, 0xbc, 0x4b, 0xf0, 0xb3, 0x3d, 0xa4, 0x50, 0xb8, 0x3e,
  0xbe, 0xbf, 0xfc, 0x3d, 0xfa, 0xd3, 0x3b, 0x3e, 0x90, 0xce, 0x7e, 0xbd,
  0x67, 0xdc, 0x8a, 0xbc, 0x0f, 0x24, 0xa0, 0x3c, 0x29, 0xc1, 0xe9, 0x3d,
  0xe2, 0x3f, 0x5b, 0x3e, 0xcd, 0xad, 0xeb, 0xbc, 0x76, 0x2b, 0xd5, 0xbe,
  0xfa, 0xc0, 0x8b, 0x3e, 0x14, 0x9d, 0x0e, 0xbe, 0xe2, 0x15, 0x25, 0x3e,
  0xb9, 0xa5, 0x87, 0x3e, 0x25, 0xc7, 0x6e, 0xbe, 0x45, 0x5a, 0x15, 0x3e,
  0x23, 0x5b, 0x25, 0xbd, 0x11, 0x7b, 0xce, 0xbc, 0x65, 0x73, 0x0e, 0x3e,
  0x20, 0xb9, 0xaa, 0x3d, 0x66, 0xde, 0x11, 0xbd, 0xbb, 0x20, 0xd2, 0xbd,
  0x9e, 0x8c, 0x9d, 0xbe, 0x4c, 0xc9, 0x50, 0x3e, 0xb5, 0x0c, 0xa8, 0xbe,
  0x40, 0x77, 0x19, 0x3d, 0xe7, 0x6c, 0xb2, 0x3e, 0x8e, 0x8c, 0x14, 0x3e,
  0xb2, 0x33, 0xad, 0xbe, 0x2a, 0x01, 0x26, 0x3e, 0xba, 0x74, 0x0b, 0xbe,
  0x02, 0xd6, 0x86, 0xbe, 0x7e, 0x67, 0xc3, 0x3d, 0xde, 0x59, 0xc3, 0x3e,
  0x3d, 0x8b, 0x6b, 0xbe, 0x32, 0xde, 0xc5, 0x3e, 0xa8, 0xbf, 0x4b, 0x3b,
  0x56, 0x56, 0x8a, 0x3d, 0xd8, 0x6e, 0x93, 0xbd, 0x8a, 0x0c, 0x12, 0x3e,
  0x9d, 0x4f, 0xfe, 0x3c, 0x1d, 0xb2, 0xe1, 0xbc, 0x64, 0x2c, 0xec, 0x3d,
  0x8c, 0x33, 0x7e, 0xbd, 0x03, 0x3a, 0x1d, 0x3e, 0x8e, 0x8c, 0x36, 0x3e,
  0xdc, 0x56, 0xaa, 0x3e, 0x38, 0x14, 0x9f, 0xbc, 0xe7, 0x0a, 0x2f, 0xbe,
  0x13, 0xf8, 0x51, 0xbe, 0x7d, 0x6a, 0x84, 0xbd, 0xb3, 0x27, 0xd2, 0x3e,
  0x95, 0x2d, 0x64, 0x3e, 0x4c, 0xeb, 0x44, 0x3e, 0x74, 0xcf, 0xc7, 0xb9,
  0x25, 0x2a, 0xab, 0xbd, 0x36, 0x37, 0x10, 0xbe, 0x8a, 0xf3, 0x0c, 0xbe,
  0xe3, 0xb4, 0xd5, 0x3b, 0xf5, 0x3d, 0x59, 0xbe, 0x6c, 0x0e, 0x95, 0x3d,
  0xee, 0x82, 0xcd, 0x3e, 0xfa, 0xe4, 0x7e, 0x3d, 0xe2, 0x0c, 0x3d, 0x3e,
  0x21, 0x5e, 0xd3, 0xbd, 0xb8, 0x24, 0x15, 0x3d, 0xe7, 0x7f, 0x5b, 0x3e,
  0x54, 0x2c, 0x87, 0x3d, 0x20, 0xe0, 0x94, 0xbe, 0x7b, 0xe6, 0xbf, 0x3e,
  0x22, 0xb1, 0x0d, 0x3c, 0x17, 0x98, 0x13, 0xbc, 0x1b, 0xa5, 0x63, 0xbd,
  0x54, 0x8f, 0xe0, 0xbe, 0xbd, 0xa2, 0xaf, 0x3e, 0x7a, 0xad, 0xb7, 0xbe,
  0x36, 0xa7, 0x91, 0x3e, 0x25, 0xd1, 0x8e, 0x3e, 0x76, 0x5b, 0x6d, 0xbe,
  0x15, 0xfc, 0x25, 0x3d, 0x69, 0xaf, 0xb2, 0x3e, 0xec, 0x3b, 0x57, 0xb9,
  0x4a, 0xcd, 0xe9, 0xbd, 0xa9, 0x08, 0x33, 0xbe, 0xb0, 0x44, 0x04, 0xbd,
  0x57, 0x79, 0x71, 0x3d, 0x50, 0x97, 0x9d, 0x3d, 0x91, 0x63, 0x07, 0x3e,
  0xff, 0x07, 0x65, 0xbe, 0xa9, 0xce, 0x44, 0x3e, 0xaf, 0x56, 0x39, 0xbd,
  0x9a, 0x83, 0xe3, 0x3d, 0xde, 0x37, 0xbc, 0xbe, 0x39, 0x0d, 0xd4, 0x3e,
  0xe6, 0x95, 0x8a, 0xbd, 0x81, 0x69, 0x8a, 0xbd, 0x3f, 0x8f, 0x76, 0x3e,
  0x23, 0xf9, 0xc5, 0x3d, 0xb3, 0xaf, 0x57, 0xbe, 0x57, 0x49, 0x0a, 0x3e,
  0xdd, 0x67, 0x90, 0xbd, 0x88, 0x09, 0x8d, 0xbe, 0x3e, 0x02, 0x09, 0xbe,
  0xb5, 0xd4, 0x9c, 0xbc, 0xf5, 0x44, 0x6b, 0xbd, 0x6d, 0x9a, 0x9f, 0x3e,
  0x60, 0x2d, 0x3e, 0xbe, 0x44, 0x0d, 0x14, 0x3e, 0xa7, 0xaa, 0x2f, 0xbe,
  0x10, 0xe7, 0xbc, 0x3e, 0xba, 0x21, 0xe7, 0x3d, 0x43, 0x30, 0x81, 0x3e,
  0x3d, 0xd2, 0x47, 0xbe, 0x1f, 0xc8, 0xd2, 0xbc, 0x57, 0xdb, 0x3e, 0x3c,
  0x94, 0xb7, 0x08, 0x3f, 0x29, 0xc9, 0x67, 0x3e, 0x77, 0x86, 0x66, 0x3e,
  0x2c, 0x81, 0x8f, 0xbe, 0x50, 0x35, 0xe9, 0xbd, 0x1f, 0x8f, 0x08, 0xbe,
  0x30, 0x04, 0x63, 0x3d, 0x13, 0x37, 0xc5, 0x3c, 0x32, 0xca, 0xed, 0x3d,
  0xe0, 0xcb, 0x27, 0x3e, 0xea, 0x73, 0xda, 0x3d, 0x6d, 0xcb, 0x03, 0x3c,
  0x07, 0xce, 0x8d, 0x3e, 0xc4, 0x86, 0x1a, 0x3e, 0x8d, 0x92, 0x55, 0xbc,
  0x62, 0x33, 0x89, 0xbe, 0x4f, 0xf5, 0x9d, 0xbd, 0xda, 0x3e, 0x5a, 0x3d,
  0x75, 0xb2, 0x81, 0x3e, 0xa9, 0x0e, 0x8a, 0xbe, 0x0b, 0xa0, 0x1e, 0xbd,
  0xb4, 0x11, 0x17, 0x3e, 0x66, 0x88, 0x66, 0xbc, 0x12, 0x76, 0xb1, 0xbc,
  0x43, 0x1b, 0x37, 0x3d, 0x48, 0x78, 0x84, 0x3c, 0x0f, 0x93, 0xa7, 0xbe,
  0xac, 0x7b, 0x72, 0x3e, 0xc9, 0x52, 0xd9, 0xbd, 0xcd, 0xa2, 0xcd, 0x3e,
  0x08, 0x0b, 0x9e, 0xbe, 0x04, 0xc7, 0x6d, 0xbe, 0x11, 0xc1, 0x28, 0x3d,
  0x10, 0xbc, 0x22, 0x3e, 0xd2, 0x73, 0x2d, 0xbe, 0x72, 0x52, 0x7f, 0xbe,
  0x16, 0xf4, 0x12, 0xbe, 0x6e, 0x4e, 0xe5, 0xbe, 0xf0, 0x0c, 0x97, 0x3e,
  0x5a, 0xfc, 0xe7, 0x3b, 0x9a, 0x3a, 0x46, 0x3e, 0x0c, 0xa0, 0x2b, 0x3d,
  0xff, 0x31, 0x18, 0x3e, 0x15, 0x38, 0xc8, 0xbd, 0x67, 0x26, 0xd3, 0x3d,
  0x71, 0xae, 0x3f, 0x3e, 0xa4, 0x60, 0x18, 0xbe, 0x35, 0x06, 0x80, 0x3e,
  0xaf, 0x80, 0xa2, 0xbe, 0xeb, 0x91, 0x9b, 0xbd, 0x4f, 0x05, 0x27, 0xbe,
  0x7b, 0xfc, 0x37, 0xbe, 0xb9, 0xe4, 0xec, 0xbd, 0x4a, 0xa1, 0x2b, 0xbe,
  0xe9, 0x57, 0xd5, 0x3d, 0x65, 0x93, 0xd0, 0xbe, 0x16, 0x81, 0xa1, 0xbe,
  0xcb, 0x37, 0xcc, 0xbe, 0x4d, 0xed, 0x26, 0x3e, 0x4c, 0x18, 0xad, 0xbd,
  0x89, 0x46, 0x4b, 0xbd, 0x5e, 0xff, 0x05, 0x3e, 0xb0, 0x65, 0x65, 0x3a,
  0xfd, 0x70, 0xf7, 0x3d, 0x7c, 0x1b, 0x7c, 0x3d, 0x43, 0xaa, 0xeb, 0x3d,
  0xab, 0x74, 0x95, 0x3e, 0x7e, 0x5a, 0x9e, 0xbe, 0xd1, 0x1d, 0x87, 0xbe,
  0xad, 0x6a, 0xa2, 0xbd, 0x9f, 0x2d, 0x54, 0x3e, 0x61, 0xc8, 0x91, 0x3a,
  0x2d, 0xbd, 0x8e, 0xbd, 0x8a, 0xd5, 0x94, 0x3e, 0xc6, 0xcf, 0x02, 0x3e,
  0x5d, 0x4d, 0x14, 0x3e, 0xe3, 0x1f, 0x73, 0x3d, 0x4b, 0xf4, 0x0e, 0x3d,
  0x50, 0x42, 0x23, 0xbe, 0xed, 0x91, 0x30, 0xbe, 0xda, 0xf2, 0x87, 0xbe,
  0x92, 0xb6, 0xe4, 0x3d, 0xbf, 0xf6, 0x89, 0x3d, 0x07, 0x5e, 0xa2, 0x3b,
  0x99, 0x56, 0xad, 0x3d, 0x4e, 0x6c, 0x24, 0xbf, 0xeb, 0xb3, 0x38, 0xbe,
  0xc2, 0x14, 0x7e, 0x3e, 0x2a, 0x75, 0x5b, 0x3c, 0x3a, 0x08, 0x41, 0x3e,
  0xcf, 0x76, 0xeb, 0x3d, 0x31, 0x11, 0x95, 0xbc, 0xf2, 0xe9, 0xf7, 0xbe,
  0x84, 0x6d, 0x58, 0x3d, 0x66, 0x95, 0x40, 0x3d, 0xb0, 0x3f, 0x0e, 0xbe,
  0x0e, 0x7e, 0x19, 0x3e, 0xcf, 0x78, 0xea, 0x3d, 0xa3, 0x18, 0x3b, 0xbe,
  0x05, 0x0e, 0xaf, 0xbe, 0xa0, 0x9e, 0x2b, 0x3c, 0x9a, 0xfd, 0x00, 0x3e,
  0x25, 0x74, 0x5c, 0xbe, 0x7f, 0x54, 0x5c, 0xbe, 0xcb, 0x11, 0xb1, 0x3c,
  0x38, 0xde, 0x76, 0xbd, 0x0b, 0x38, 0x01, 0x3c, 0x0b, 0x25, 0x9b, 0x3e,
  0x1a, 0x54, 0xa4, 0xbe, 0xb7, 0x1e, 0xd3, 0xbe, 0x17, 0x4c, 0xe0, 0xbd,
  0x49, 0x62, 0x99, 0xbe, 0x61, 0x34, 0x1b, 0x3f, 0x99, 0xf2, 0xa0, 0xbc,
  0x4b, 0x68, 0x19, 0xbd, 0xa2, 0x86, 0x49, 0xbd, 0x4f, 0x3e, 0x34, 0xbe,
  0x96, 0x41, 0x1e, 0xbf, 0xf8, 0xf6, 0x8f, 0x3e, 0xc6, 0xc5, 0x7d, 0x3d,
  0xd4, 0x16, 0x9b, 0xbe, 0x4e, 0xeb, 0x50, 0xbe, 0xe0, 0x23, 0x02, 0x3e,
  0x57, 0xb0, 0x9b, 0xbe, 0x05, 0x0b, 0x38, 0xbd, 0x8f, 0x96, 0x5c, 0x3e,
  0x0c, 0x61, 0x82, 0x3e, 0x6d, 0xfe, 0x84, 0x3d, 0x28, 0x2f, 0x77, 0xbe,
  0x67, 0x78, 0xb5, 0xbe, 0x71, 0x0b, 0x97, 0x3d, 0xac, 0x40, 0x9b, 0x3c,
  0x0f, 0xe4, 0xcb, 0x3c, 0x2d, 0x98, 0x63, 0xba, 0x4b, 0x31, 0x89, 0x3d,
  0x25, 0x44, 0x09, 0x3e, 0xab, 0x13, 0x8b, 0x3c, 0x22, 0x3b, 0xab, 0x3e,
  0x24, 0x0d, 0x96, 0x3e, 0x63, 0x30, 0x3b, 0xbd, 0xd5, 0x8b, 0x9b, 0xbe,
  0x3c, 0x3e, 0x64, 0x3e, 0x2a, 0x81, 0x90, 0x3e, 0x6c, 0x50, 0x33, 0x3e,
  0x11, 0xa0, 0x60, 0x3e, 0x96, 0x97, 0x1f, 0xbe, 0x83, 0xc7, 0x18, 0xbe,
  0x3e, 0xe4, 0x66, 0xbd, 0x75, 0xf4, 0xe4, 0x3d, 0xa7, 0xa1, 0x99, 0x3c,
  0x49, 0x73, 0x58, 0xbd, 0xa9, 0x56, 0x7c, 0x3e, 0x6d, 0x40, 0x02, 0xbe,
  0xf7, 0x4b, 0x78, 0xbe, 0x42, 0x9e, 0xa6, 0xbd, 0xb5, 0x8e, 0x99, 0xbe,
  0xb4, 0xbe, 0x0e, 0xbe, 0x17, 0xac, 0xf5, 0xbd, 0x18, 0xc8, 0xb4, 0x3e,
  0xc9, 0x14, 0x24, 0x3d, 0xbb, 0xa4, 0x15, 0xbb, 0xd3, 0x54, 0x1e, 0x3d,
  0x30, 0x36, 0x17, 0x3d, 0xbb, 0x97, 0xc1, 0xbb, 0x86, 0xd6, 0x79, 0x3e,
  0x0f, 0xdd, 0xb5, 0xbc, 0x77, 0xe1, 0xde, 0xbe, 0xcd, 0x82, 0x2b, 0x3e,
  0x15, 0xb4, 0xcf, 0x3d, 0x33, 0x7d, 0x96, 0x3d, 0xd2, 0x38, 0x46, 0xbc,
  0x98, 0x02, 0xe0, 0x3b, 0x60, 0xeb, 0x46, 0xbe, 0x9c, 0x78, 0x29, 0x3e,
  0x54, 0x4b, 0x9f, 0x3e, 0x8e, 0xb7, 0x21, 0xbe, 0x20, 0x4c, 0xaa, 0x3e,
  0xc0, 0x73, 0x6f, 0x3e, 0xa1, 0x18, 0xca, 0xbe, 0xbc, 0x76, 0x28, 0xbd,
  0x91, 0x39, 0x27, 0x3e, 0x38, 0xc7, 0xd3, 0xbe, 0x97, 0x4a, 0x5e, 0xbe,
  0xef, 0x7c, 0x5c, 0x3e, 0x9c, 0xaf, 0xa9, 0x3e, 0x08, 0xb0, 0x5b, 0x3e,
  0x32, 0x79, 0xd2, 0x3e, 0x67, 0x5f, 0x90, 0x3e, 0xd5, 0xf3, 0x48, 0x3e,
  0x51, 0x38, 0x06, 0xbe, 0xe3, 0x16, 0x0b, 0xbe, 0xcb, 0xdb, 0x3c, 0xbd,
  0x25, 0x77, 0x82, 0x3e, 0xfb, 0x9c, 0x81, 0xbd, 0xd2, 0x4a, 0xd9, 0xbe,
  0x0b, 0xc9, 0x67, 0xbd, 0x69, 0x18, 0x21, 0xbe, 0x36, 0xfc, 0xff, 0xff,
  0x04, 0x00, 0x00, 0x00, 0x80, 0x01, 0x00, 0x00, 0x8b, 0xbd, 0x1a, 0x3f,
  0xf0, 0xe9, 0x23, 0xbf, 0x08, 0xfe, 0x13, 0x3f, 0xbb, 0xad, 0x14, 0x3e,
  0xda, 0xdd, 0xbe, 0xbe, 0xec, 0xa9, 0x08, 0x3f, 0xe8, 0x60, 0xe8, 0xbe,
  0xeb, 0x4c, 0x01, 0xbf, 0x55, 0xd2, 0x88, 0xbe, 0x7d, 0x7d, 0x9a, 0xbe,
  0xd3, 0xf6, 0xc5, 0x3d, 0x12, 0x78, 0x1c, 0xbd, 0xed, 0x85, 0x50, 0xbf,
  0x04, 0x29, 0xa6, 0xbe, 0xbc, 0x2f, 0x23, 0xbf, 0xf3, 0xbc, 0x2c, 0x3e,
  0x8f, 0x87, 0x3a, 0xbf, 0x38, 0xb0, 0x30, 0x3f, 0xf1, 0x9c, 0x8d, 0x3e,
  0x2c, 0x64, 0x1a, 0xbf, 0x05, 0x1b, 0x01, 0xbf, 0x28, 0xc3, 0x0c, 0x3f,
  0x4e, 0x0c, 0xbb, 0xbe, 0x17, 0x87, 0xf7, 0x3e, 0xc9, 0x89, 0x21, 0x3f,
  0x74, 0xa0, 0x1b, 0xbf, 0x9b, 0x15, 0x97, 0x3e, 0xcb, 0x81, 0xb2, 0xbe,
  0x1a, 0x3a, 0x15, 0xbf, 0xdb, 0xa9, 0x50, 0xbe, 0xb7, 0x2d, 0x93, 0xbe,
  0x95, 0x2f, 0xd6, 0xbe, 0x01, 0xb1, 0x62, 0xbe, 0x97, 0xb7, 0x66, 0x3e,
  0xe9, 0xf6, 0x23, 0xbf, 0xa1, 0x29, 0x8e, 0xbe, 0x8f, 0x55, 0x9c, 0xbe,
  0xda, 0x3a, 0x05, 0xbf, 0xd9, 0x78, 0xff, 0x3d, 0xe2, 0x30, 0x7b, 0x3e,
  0xc1, 0x9c, 0xc0, 0x3e, 0x3b, 0xa0, 0xce, 0xbe, 0x0f, 0xf0, 0x51, 0x3f,
  0xd7, 0x42, 0x3f, 0x3f, 0x7d, 0xff, 0xc9, 0x3e, 0x92, 0xaa, 0xea, 0x3e,
  0x84, 0x45, 0xb9, 0x3e, 0xdc, 0xe1, 0x3d, 0x3f, 0x5c, 0xc9, 0x93, 0x3a,
  0x41, 0x15, 0x61, 0xbf, 0x15, 0x36, 0x9a, 0xbe, 0x01, 0x0f, 0x94, 0xbe,
  0x9c, 0x81, 0x4e, 0xbf, 0xaa, 0x4c, 0x1c, 0xbf, 0x9b, 0xbc, 0x1e, 0xbf,
  0xe2, 0x03, 0x9f, 0x3c, 0x59, 0x36, 0x59, 0xbf, 0x3f, 0x21, 0x1d, 0x3f,
  0x23, 0xec, 0x1c, 0xbf, 0xc0, 0x0c, 0xc4, 0x3e, 0xe5, 0x9e, 0x3f, 0x3f,
  0x93, 0xe8, 0x07, 0x3f, 0x06, 0xef, 0x3b, 0xbe, 0xb8, 0xb0, 0x2a, 0x3f,
  0x53, 0x06, 0xd2, 0xbd, 0x48, 0x03, 0xdd, 0x3e, 0xbd, 0x04, 0x4f, 0xbd,
  0x16, 0x37, 0x1a, 0xbf, 0xcc, 0x36, 0xf0, 0xbd, 0xb7, 0x4d, 0x0d, 0x3f,
  0x58, 0xb9, 0xe0, 0x3d, 0xf0, 0x4c, 0x3f, 0xbf, 0x8b, 0x32, 0xa6, 0x3e,
  0xed, 0xd6, 0xa0, 0x3e, 0xbf, 0xf7, 0x37, 0xbf, 0xcb, 0x8a, 0x6d, 0xbe,
  0x5c, 0x3a, 0x81, 0xbe, 0x9f, 0x88, 0xa1, 0x3e, 0x3d, 0x38, 0x88, 0x3e,
  0x56, 0xbe, 0x73, 0xbf, 0x19, 0x59, 0xfa, 0x3d, 0x05, 0xa1, 0x1f, 0xbf,
  0xf6, 0x5d, 0x45, 0xbf, 0xe1, 0x48, 0x37, 0x3e, 0xf0, 0xc4, 0x19, 0x3f,
  0x10, 0x3b, 0x66, 0x3e, 0xd1, 0xc5, 0x0a, 0x3f, 0x8d, 0x24, 0xe9, 0xbe,
  0x27, 0x07, 0x13, 0x3e, 0xad, 0x55, 0x19, 0x3d, 0xe5, 0x0e, 0xf4, 0x3e,
  0x40, 0x66, 0xc4, 0xbe, 0x9c, 0x32, 0xb3, 0xbe, 0x46, 0x9e, 0xef, 0xbe,
  0xa9, 0x35, 0x88, 0x3f, 0x2b, 0x63, 0xd8, 0xbe, 0xc2, 0xfd, 0xff, 0xff,
  0x04, 0x00, 0x00, 0x00, 0x0c, 0x00, 0x00, 0x00, 0x1e, 0xe7, 0x24, 0xbd,
  0x6d, 0x01, 0x34, 0xbe, 0x5c, 0xe3, 0x2e, 0x3e, 0xda, 0xfd, 0xff, 0xff,
  0x04, 0x00, 0x00, 0x00, 0x00, 0x01, 0x00, 0x00, 0x95, 0x0c, 0xe0, 0x3d,
  0x43, 0x89, 0xb0, 0x3d, 0xb4, 0xdd, 0xce, 0x3d, 0xbd, 0x48, 0x2d, 0x3e,
  0x48, 0xce, 0x9e, 0xbd, 0xda, 0x08, 0xbc, 0x3c, 0x9d, 0xf9, 0x8d, 0x3e,
  0x88, 0xd9, 0x8c, 0x3e, 0x03, 0x4f, 0xce, 0x3d, 0x92, 0x2a, 0xd3, 0x3d,
  0x21, 0xb7, 0x82, 0x3d, 0xf6, 0x46, 0x15, 0x3e, 0x2e, 0xed, 0x88, 0x3e,
  0x0e, 0x44, 0x21, 0xbe, 0xa5, 0x69, 0xd7, 0x3e, 0x18, 0x06, 0xdc, 0x3d,
  0xee, 0x6a, 0x5e, 0x3e, 0x4d, 0x58, 0x2c, 0x3e, 0xbb, 0xc1, 0x86, 0x3c,
  0x56, 0xae, 0x94, 0x3e, 0x26, 0xcd, 0xaa, 0x3d, 0xba, 0x46, 0x8e, 0x3e,
  0xb7, 0xdb, 0xaa, 0x3e, 0xba, 0x28, 0x52, 0x3e, 0xa7, 0xad, 0x29, 0xbe,
  0x87, 0x85, 0x84, 0x3e, 0xe3, 0x12, 0x56, 0xbb, 0xab, 0xd9, 0xc1, 0x3e,
  0x48, 0x1e, 0xd3, 0xbc, 0xeb, 0xf6, 0x73, 0x3e, 0xed, 0x32, 0x43, 0x3e,
  0x99, 0xe4, 0x0e, 0xbe, 0xba, 0x64, 0x8c, 0x3e, 0x45, 0x08, 0x29, 0x3e,
  0xb8, 0xb6, 0x4c, 0xbe, 0x91, 0x12, 0xa5, 0x3e, 0x09, 0xbd, 0x92, 0x3e,
  0x2a, 0xb0, 0x17, 0xbe, 0x1e, 0xaa, 0x5b, 0xbd, 0x8f, 0xba, 0x9f, 0x3e,
  0xc8, 0xa2, 0xaa, 0x3d, 0x5f, 0x3e, 0x7c, 0x3d, 0x33, 0xfc, 0x9a, 0x3e,
  0xa9, 0x44, 0x30, 0x3e, 0x73, 0x6b, 0x11, 0x3e, 0xd1, 0x81, 0x71, 0x3e,
  0x71, 0xa1, 0xdf, 0x3e, 0xf2, 0xd3, 0x72, 0xbc, 0xd1, 0x11, 0x4b, 0x3e,
  0x81, 0xed, 0x99, 0xbd, 0xdf, 0x48, 0xd7, 0x3e, 0xb0, 0xc4, 0x04, 0x3f,
  0x0f, 0x94, 0x46, 0x3e, 0x9f, 0x55, 0xa0, 0x3d, 0x0a, 0x56, 0xed, 0x3d,
  0xa4, 0x7b, 0x43, 0x3d, 0xcf, 0x6f, 0x63, 0x3e, 0xc9, 0x6f, 0x0b, 0x3e,
  0x62, 0xcb, 0x86, 0x3e, 0x07, 0xc3, 0x51, 0xbe, 0x54, 0x11, 0x42, 0xbe,
  0xa8, 0xf1, 0xcf, 0x3d, 0x02, 0xab, 0x37, 0x3d, 0x07, 0x2b, 0x0d, 0x3e,
  0xe6, 0xfe, 0xff, 0xff, 0x04, 0x00, 0x00, 0x00, 0x80, 0x00, 0x00, 0x00,
  0xea, 0xcd, 0xe4, 0x3d, 0xcd, 0x85, 0xd8, 0x3d, 0x2c, 0xe2, 0x57, 0x3e,
  0xb0, 0x8e, 0x6a, 0xbd, 0x69, 0xb2, 0x1d, 0xbd, 0xe6, 0x43, 0xab, 0x3e,
  0x45, 0x31, 0x89, 0x3d, 0x77, 0x08, 0xe3, 0xbd, 0x7b, 0xe9, 0xbd, 0x3d,
  0xb6, 0x22, 0x48, 0x3e, 0xaf, 0x5c, 0x3a, 0xbe, 0xa2, 0xd5, 0x03, 0xbe,
  0x7d, 0x12, 0x0a, 0xbe, 0xf0, 0xa6, 0x01, 0x3d, 0x6b, 0x18, 0x53, 0x3d,
  0x96, 0x6c, 0x11, 0xbe, 0x6b, 0x38, 0xb0, 0x3d, 0xf2, 0x1c, 0xbd, 0x3d,
  0xe1, 0xca, 0xb0, 0x3a, 0x26, 0xf3, 0x33, 0x3e, 0xb2, 0x3f, 0x1b, 0x3d,
  0xf1, 0x48, 0x81, 0x3e, 0xc3, 0x38, 0x8b, 0x3e, 0x5a, 0xc7, 0x2c, 0xbd,
  0xb5, 0xe0, 0x57, 0x3e, 0xe7, 0x2b, 0x98, 0xbd, 0x73, 0x83, 0x84, 0x3e,
  0x9d, 0x35, 0x3c, 0xbe, 0xcb, 0xf6, 0x53, 0xbe, 0xee, 0xe6, 0x12, 0xbe,
  0x1a, 0x07, 0x5c, 0x3e, 0xd1, 0x1d, 0xc0, 0xbd, 0x9c, 0xf8, 0xff, 0xff,
  0xa0, 0xf8, 0xff, 0xff, 0x0f, 0x00, 0x00, 0x00, 0x4d, 0x4c, 0x49, 0x52,
  0x20, 0x43, 0x6f, 0x6e, 0x76, 0x65, 0x72, 0x74, 0x65, 0x64, 0x2e, 0x00,
  0x01, 0x00, 0x00, 0x00, 0x14, 0x00, 0x00, 0x00, 0x00, 0x00, 0x0e, 0x00,
  0x18, 0x00, 0x14, 0x00, 0x10, 0x00, 0x0c, 0x00, 0x08, 0x00, 0x04, 0x00,
  0x0e, 0x00, 0x00, 0x00, 0x14, 0x00, 0x00, 0x00, 0x1c, 0x00, 0x00, 0x00,
  0xa4, 0x01, 0x00, 0x00, 0xa8, 0x01, 0x00, 0x00, 0xac, 0x01, 0x00, 0x00,
  0x04, 0x00, 0x00, 0x00, 0x6d, 0x61, 0x69, 0x6e, 0x00, 0x00, 0x00, 0x00,
  0x06, 0x00, 0x00, 0x00, 0x5c, 0x01, 0x00, 0x00, 0x18, 0x01, 0x00, 0x00,
  0xc4, 0x00, 0x00, 0x00, 0x78, 0x00, 0x00, 0x00, 0x40, 0x00, 0x00, 0x00,
  0x04, 0x00, 0x00, 0x00, 0x5a, 0xff, 0xff, 0xff, 0x1c, 0x00, 0x00, 0x00,
  0x00, 0x00, 0x00, 0x09, 0x1c, 0x00, 0x00, 0x00, 0x20, 0x00, 0x00, 0x00,
  0x03, 0x00, 0x00, 0x00, 0x00, 0x00, 0x06, 0x00, 0x08, 0x00, 0x04, 0x00,
  0x06, 0x00, 0x00, 0x00, 0x00, 0x00, 0x80, 0x3f, 0x01, 0x00, 0x00, 0x00,
  0x0e, 0x00, 0x00, 0x00, 0x01, 0x00, 0x00, 0x00, 0x0d, 0x00, 0x00, 0x00,
  0x42, 0xff, 0xff, 0xff, 0x14, 0x00, 0x00, 0x00, 0x00, 0x00, 0x00, 0x08,
  0x10, 0x00, 0x00, 0x00, 0x14, 0x00, 0x00, 0x00, 0x02, 0x00, 0x00, 0x00,
  0x60, 0xf9, 0xff, 0xff, 0x01, 0x00, 0x00, 0x00, 0x0d, 0x00, 0x00, 0x00,
  0x03, 0x00, 0x00, 0x00, 0x0c, 0x00, 0x00, 0x00, 0x04, 0x00, 0x00, 0x00,
  0x03, 0x00, 0x00, 0x00, 0x76, 0xff, 0xff, 0xff, 0x14, 0x00, 0x00, 0x00,
  0x00, 0x00, 0x00, 0x08, 0x14, 0x00, 0x00, 0x00, 0x18, 0x00, 0x00, 0x00,
  0x02, 0x00, 0x00, 0x00, 0xb6, 0xff, 0xff, 0xff, 0x00, 0x00, 0x00, 0x01,
  0x01, 0x00, 0x00, 0x00, 0x0c, 0x00, 0x00, 0x00, 0x03, 0x00, 0x00, 0x00,
  0x0b, 0x00, 0x00, 0x00, 0x05, 0x00, 0x00, 0x00, 0x01, 0x00, 0x00, 0x00,
  0x00, 0x00, 0x0e, 0x00, 0x1a, 0x00, 0x14, 0x00, 0x10, 0x00, 0x0c, 0x00,
  0x0b, 0x00, 0x04, 0x00, 0x0e, 0x00, 0x00, 0x00, 0x1c, 0x00, 0x00, 0x00,
  0x00, 0x00, 0x00, 0x08, 0x1c, 0x00, 0x00, 0x00, 0x20, 0x00, 0x00, 0x00,
  0x02, 0x00, 0x00, 0x00, 0x00, 0x00, 0x06, 0x00, 0x08, 0x00, 0x07, 0x00,
  0x06, 0x00, 0x00, 0x00, 0x00, 0x00, 0x00, 0x01, 0x01, 0x00, 0x00, 0x00,
  0x0b, 0x00, 0x00, 0x00, 0x03, 0x00, 0x00, 0x00, 0x0a, 0x00, 0x00, 0x00,
  0x06, 0x00, 0x00, 0x00, 0x02, 0x00, 0x00, 0x00, 0x00, 0x00, 0x0e, 0x00,
  0x18, 0x00, 0x14, 0x00, 0x10, 0x00, 0x0c, 0x00, 0x0b, 0x00, 0x04, 0x00,
  0x0e, 0x00, 0x00, 0x00, 0x14, 0x00, 0x00, 0x00, 0x00, 0x00, 0x00, 0x15,
  0x10, 0x00, 0x00, 0x00, 0x14, 0x00, 0x00, 0x00, 0x01, 0x00, 0x00, 0x00,
  0x2c, 0xfa, 0xff, 0xff, 0x01, 0x00, 0x00, 0x00, 0x0a, 0x00, 0x00, 0x00,
  0x02, 0x00, 0x00, 0x00, 0x09, 0x00, 0x00, 0x00, 0x07, 0x00, 0x00, 0x00,
  0x00, 0x00, 0x0e, 0x00, 0x14, 0x00, 0x00, 0x00, 0x10, 0x00, 0x0c, 0x00,
  0x0b, 0x00, 0x04, 0x00, 0x0e, 0x00, 0x00, 0x00, 0x10, 0x00, 0x00, 0x00,
  0x00, 0x00, 0x00, 0x1c, 0x0c, 0x00, 0x00, 0x00, 0x10, 0x00, 0x00, 0x00,
  0x68, 0xfa, 0xff, 0xff, 0x01, 0x00, 0x00, 0x00, 0x09, 0x00, 0x00, 0x00,
  0x02, 0x00, 0x00, 0x00, 0x00, 0x00, 0x00, 0x00, 0x08, 0x00, 0x00, 0x00,
  0x01, 0x00, 0x00, 0x00, 0x0e, 0x00, 0x00, 0x00, 0x01, 0x00, 0x00, 0x00,
  0x00, 0x00, 0x00, 0x00, 0x0f, 0x00, 0x00, 0x00, 0x44, 0x05, 0x00, 0x00,
  0xf0, 0x04, 0x00, 0x00, 0x9c, 0x04, 0x00, 0x00, 0x60, 0x04, 0x00, 0x00,
  0x20, 0x04, 0x00, 0x00, 0xe0, 0x03, 0x00, 0x00, 0xa0, 0x03, 0x00, 0x00,
  0x60, 0x03, 0x00, 0x00, 0x28, 0x03, 0x00, 0x00, 0xc4, 0x02, 0x00, 0x00,
  0x38, 0x02, 0x00, 0x00, 0x94, 0x01, 0x00, 0x00, 0xf0, 0x00, 0x00, 0x00,
  0x60, 0x00, 0x00, 0x00, 0x04, 0x00, 0x00, 0x00, 0x0e, 0xfb, 0xff, 0xff,
  0x00, 0x00, 0x00, 0x01, 0x14, 0x00, 0x00, 0x00, 0x1c, 0x00, 0x00, 0x00,
  0x1c, 0x00, 0x00, 0x00, 0x0f, 0x00, 0x00, 0x00, 0x34, 0x00, 0x00, 0x00,
  0x02, 0x00, 0x00, 0x00, 0xff, 0xff, 0xff, 0xff, 0x03, 0x00, 0x00, 0x00,
  0xf8, 0xfa, 0xff, 0xff, 0x1b, 0x00, 0x00, 0x00, 0x53, 0x74, 0x61, 0x74,
  0x65, 0x66, 0x75, 0x6c, 0x50, 0x61, 0x72, 0x74, 0x69, 0x74, 0x69, 0x6f,
  0x6e, 0x65, 0x64, 0x43, 0x61, 0x6c, 0x6c, 0x5f, 0x31, 0x3a, 0x30, 0x00,
  0x02, 0x00, 0x00, 0x00, 0x01, 0x00, 0x00, 0x00, 0x03, 0x00, 0x00, 0x00,
  0x66, 0xfb, 0xff, 0xff, 0x00, 0x00, 0x00, 0x01, 0x14, 0x00, 0x00, 0x00,
  0x1c, 0x00, 0x00, 0x00, 0x1c, 0x00, 0x00, 0x00, 0x0e, 0x00, 0x00, 0x00,
  0x68, 0x00, 0x00, 0x00, 0x02, 0x00, 0x00, 0x00, 0xff, 0xff, 0xff, 0xff,
  0x03, 0x00, 0x00, 0x00, 0x50, 0xfb, 0xff, 0xff, 0x4c, 0x00, 0x00, 0x00,
  0x73, 0x65, 0x71, 0x75, 0x65, 0x6e, 0x74, 0x69, 0x61, 0x6c, 0x5f, 0x35,
  0x5f, 0x31, 0x2f, 0x68, 0x65, 0x61, 0x6c, 0x74, 0x68, 0x5f, 0x6f, 0x75,
  0x74, 0x70, 0x75, 0x74, 0x5f, 0x31, 0x2f, 0x4d, 0x61, 0x74, 0x4d, 0x75,
  0x6c, 0x3b, 0x73, 0x65, 0x71, 0x75, 0x65, 0x6e, 0x74, 0x69, 0x61, 0x6c,
  0x5f, 0x35, 0x5f, 0x31, 0x2f, 0x68, 0x65, 0x61, 0x6c, 0x74, 0x68, 0x5f,
  0x6f, 0x75, 0x74, 0x70, 0x75, 0x74, 0x5f, 0x31, 0x2f, 0x42, 0x69, 0x61,
  0x73, 0x41, 0x64, 0x64, 0x00, 0x00, 0x00, 0x00, 0x02, 0x00, 0x00, 0x00,
  0x01, 0x00, 0x00, 0x00, 0x03, 0x00, 0x00, 0x00, 0xf2, 0xfb, 0xff, 0xff,
  0x00, 0x00, 0x00, 0x01, 0x14, 0x00, 0x00, 0x00, 0x1c, 0x00, 0x00, 0x00,
  0x1c, 0x00, 0x00, 0x00, 0x0d, 0x00, 0x00, 0x00, 0x7c, 0x00, 0x00, 0x00,
  0x02, 0x00, 0x00, 0x00, 0xff, 0xff, 0xff, 0xff, 0x20, 0x00, 0x00, 0x00,
  0xdc, 0xfb, 0xff, 0xff, 0x61, 0x00, 0x00, 0x00, 0x73, 0x65, 0x71, 0x75,
  0x65, 0x6e, 0x74, 0x69, 0x61, 0x6c, 0x5f, 0x35, 0x5f, 0x31, 0x2f, 0x64,
  0x65, 0x6e, 0x73, 0x65, 0x5f, 0x31, 0x31, 0x5f, 0x31, 0x2f, 0x4d, 0x61,
  0x74, 0x4d, 0x75, 0x6c, 0x3b, 0x73, 0x65, 0x71, 0x75, 0x65, 0x6e, 0x74,
  0x69, 0x61, 0x6c, 0x5f, 0x35, 0x5f, 0x31, 0x2f, 0x64, 0x65, 0x6e, 0x73,
  0x65, 0x5f, 0x31, 0x31, 0x5f, 0x31, 0x2f, 0x52, 0x65, 0x6c, 0x75, 0x3b,
  0x73, 0x65, 0x71, 0x75, 0x65, 0x6e, 0x74, 0x69, 0x61, 0x6c, 0x5f, 0x35,
  0x5f, 0x31, 0x2f, 0x64, 0x65, 0x6e, 0x73, 0x65, 0x5f, 0x31, 0x31, 0x5f,
  0x31, 0x2f, 0x42, 0x69, 0x61, 0x73, 0x41, 0x64, 0x64, 0x00, 0x00, 0x00,
  0x02, 0x00, 0x00, 0x00, 0x01, 0x00, 0x00, 0x00, 0x20, 0x00, 0x00, 0x00,
  0x92, 0xfc, 0xff, 0xff, 0x00, 0x00, 0x00, 0x01, 0x14, 0x00, 0x00, 0x00,
  0x1c, 0x00, 0x00, 0x00, 0x1c, 0x00, 0x00, 0x00, 0x0c, 0x00, 0x00, 0x00,
  0x7c, 0x00, 0x00, 0x00, 0x02, 0x00, 0x00, 0x00, 0xff, 0xff, 0xff, 0xff,
  0x40, 0x00, 0x00, 0x00, 0x7c, 0xfc, 0xff, 0xff, 0x61, 0x00, 0x00, 0x00,
  0x73, 0x65, 0x71, 0x75, 0x65, 0x6e, 0x74, 0x69, 0x61, 0x6c, 0x5f, 0x35,
  0x5f, 0x31, 0x2f, 0x64, 0x65, 0x6e, 0x73, 0x65, 0x5f, 0x31, 0x30, 0x5f,
  0x31, 0x2f, 0x4d, 0x61, 0x74, 0x4d, 0x75, 0x6c, 0x3b, 0x73, 0x65, 0x71,
  0x75, 0x65, 0x6e, 0x74, 0x69, 0x61, 0x6c, 0x5f, 0x35, 0x5f, 0x31, 0x2f,
  0x64, 0x65, 0x6e, 0x73, 0x65, 0x5f, 0x31, 0x30, 0x5f, 0x31, 0x2f, 0x52,
  0x65, 0x6c, 0x75, 0x3b, 0x73, 0x65, 0x71, 0x75, 0x65, 0x6e, 0x74, 0x69,
  0x61, 0x6c, 0x5f, 0x35, 0x5f, 0x31, 0x2f, 0x64, 0x65, 0x6e, 0x73, 0x65,
  0x5f, 0x31, 0x30, 0x5f, 0x31, 0x2f, 0x42, 0x69, 0x61, 0x73, 0x41, 0x64,
  0x64, 0x00, 0x00, 0x00, 0x02, 0x00, 0x00, 0x00, 0x01, 0x00, 0x00, 0x00,
  0x40, 0x00, 0x00, 0x00, 0x32, 0xfd, 0xff, 0xff, 0x00, 0x00, 0x00, 0x01,
  0x14, 0x00, 0x00, 0x00, 0x1c, 0x00, 0x00, 0x00, 0x1c, 0x00, 0x00, 0x00,
  0x0b, 0x00, 0x00, 0x00, 0x64, 0x00, 0x00, 0x00, 0x02, 0x00, 0x00, 0x00,
  0xff, 0xff, 0xff, 0xff, 0x07, 0x00, 0x00, 0x00, 0x1c, 0xfd, 0xff, 0xff,
  0x49, 0x00, 0x00, 0x00, 0x73, 0x65, 0x71, 0x75, 0x65, 0x6e, 0x74, 0x69,
  0x61, 0x6c, 0x5f, 0x35, 0x5f, 0x31, 0x2f, 0x68, 0x65, 0x61, 0x6c, 0x74,
  0x68, 0x5f, 0x6e, 0x6f, 0x72, 0x6d, 0x5f, 0x31, 0x2f, 0x74, 0x72, 0x75,
  0x65, 0x64, 0x69, 0x76, 0x3b, 0x73, 0x65, 0x71, 0x75, 0x65, 0x6e, 0x74,
  0x69, 0x61, 0x6c, 0x5f, 0x35, 0x5f, 0x31, 0x2f, 0x68, 0x65, 0x61, 0x6c,
  0x74, 0x68, 0x5f, 0x6e, 0x6f, 0x72, 0x6d, 0x5f, 0x31, 0x2f, 0x4d, 0x61,
  0x78, 0x69, 0x6d, 0x75, 0x6d, 0x00, 0x00, 0x00, 0x02, 0x00, 0x00, 0x00,
  0x01, 0x00, 0x00, 0x00, 0x07, 0x00, 0x00, 0x00, 0xba, 0xfd, 0xff, 0xff,
  0x00, 0x00, 0x00, 0x01, 0x14, 0x00, 0x00, 0x00, 0x1c, 0x00, 0x00, 0x00,
  0x1c, 0x00, 0x00, 0x00, 0x0a, 0x00, 0x00, 0x00, 0x3c, 0x00, 0x00, 0x00,
  0x02, 0x00, 0x00, 0x00, 0xff, 0xff, 0xff, 0xff, 0x07, 0x00, 0x00, 0x00,
  0xa4, 0xfd, 0xff, 0xff, 0x20, 0x00, 0x00, 0x00, 0x73, 0x65, 0x71, 0x75,
  0x65, 0x6e, 0x74, 0x69, 0x61, 0x6c, 0x5f, 0x35, 0x5f, 0x31, 0x2f, 0x68,
  0x65, 0x61, 0x6c, 0x74, 0x68, 0x5f, 0x6e, 0x6f, 0x72, 0x6d, 0x5f, 0x31,
  0x2f, 0x53, 0x75, 0x62, 0x00, 0x00, 0x00, 0x00, 0x02, 0x00, 0x00, 0x00,
  0x01, 0x00, 0x00, 0x00, 0x07, 0x00, 0x00, 0x00, 0x6a, 0xfe, 0xff, 0xff,
  0x00, 0x00, 0x00, 0x01, 0x10, 0x00, 0x00, 0x00, 0x10, 0x00, 0x00, 0x00,
  0x09, 0x00, 0x00, 0x00, 0x14, 0x00, 0x00, 0x00, 0xf4, 0xfd, 0xff, 0xff,
  0x07, 0x00, 0x00, 0x00, 0x43, 0x6f, 0x6e, 0x73, 0x74, 0x5f, 0x31, 0x00,
  0x02, 0x00, 0x00, 0x00, 0x01, 0x00, 0x00, 0x00, 0x07, 0x00, 0x00, 0x00,
  0x9e, 0xfe, 0xff, 0xff, 0x00, 0x00, 0x00, 0x01, 0x10, 0x00, 0x00, 0x00,
  0x10, 0x00, 0x00, 0x00, 0x08, 0x00, 0x00, 0x00, 0x1c, 0x00, 0x00, 0x00,
  0x28, 0xfe, 0xff, 0xff, 0x0f, 0x00, 0x00, 0x00, 0x61, 0x72, 0x69, 0x74,
  0x68, 0x2e, 0x63, 0x6f, 0x6e, 0x73, 0x74, 0x61, 0x6e, 0x74, 0x36, 0x00,
  0x02, 0x00, 0x00, 0x00, 0x01, 0x00, 0x00, 0x00, 0x07, 0x00, 0x00, 0x00,
  0xda, 0xfe, 0xff, 0xff, 0x00, 0x00, 0x00, 0x01, 0x10, 0x00, 0x00, 0x00,
  0x10, 0x00, 0x00, 0x00, 0x07, 0x00, 0x00, 0x00, 0x1c, 0x00, 0x00, 0x00,
  0x64, 0xfe, 0xff, 0xff, 0x0f, 0x00, 0x00, 0x00, 0x61, 0x72, 0x69, 0x74,
  0x68, 0x2e, 0x63, 0x6f, 0x6e, 0x73, 0x74, 0x61, 0x6e, 0x74, 0x35, 0x00,
  0x02, 0x00, 0x00, 0x00, 0x40, 0x00, 0x00, 0x00, 0x07, 0x00, 0x00, 0x00,
  0x16, 0xff, 0xff, 0xff, 0x00, 0x00, 0x00, 0x01, 0x10, 0x00, 0x00, 0x00,
  0x10, 0x00, 0x00, 0x00, 0x06, 0x00, 0x00, 0x00, 0x1c, 0x00, 0x00, 0x00,
  0xa0, 0xfe, 0xff, 0xff, 0x0f, 0x00, 0x00, 0x00, 0x61, 0x72, 0x69, 0x74,
  0x68, 0x2e, 0x63, 0x6f, 0x6e, 0x73, 0x74, 0x61, 0x6e, 0x74, 0x34, 0x00,
  0x02, 0x00, 0x00, 0x00, 0x20, 0x00, 0x00, 0x00, 0x40, 0x00, 0x00, 0x00,
  0x52, 0xff, 0xff, 0xff, 0x00, 0x00, 0x00, 0x01, 0x10, 0x00, 0x00, 0x00,
  0x10, 0x00, 0x00, 0x00, 0x05, 0x00, 0x00, 0x00, 0x1c, 0x00, 0x00, 0x00,
  0xdc, 0xfe, 0xff, 0xff, 0x0f, 0x00, 0x00, 0x00, 0x61, 0x72, 0x69, 0x74,
  0x68, 0x2e, 0x63, 0x6f, 0x6e, 0x73, 0x74, 0x61, 0x6e, 0x74, 0x33, 0x00,
  0x02, 0x00, 0x00, 0x00, 0x03, 0x00, 0x00, 0x00, 0x20, 0x00, 0x00, 0x00,
  0x8e, 0xff, 0xff, 0xff, 0x00, 0x00, 0x00, 0x01, 0x10, 0x00, 0x00, 0x00,
  0x10, 0x00, 0x00, 0x00, 0x04, 0x00, 0x00, 0x00, 0x1c, 0x00, 0x00, 0x00,
  0x18, 0xff, 0xff, 0xff, 0x0f, 0x00, 0x00, 0x00, 0x61, 0x72, 0x69, 0x74,
  0x68, 0x2e, 0x63, 0x6f, 0x6e, 0x73, 0x74, 0x61, 0x6e, 0x74, 0x32, 0x00,
  0x01, 0x00, 0x00, 0x00, 0x03, 0x00, 0x00, 0x00, 0xc6, 0xff, 0xff, 0xff,
  0x00, 0x00, 0x00, 0x01, 0x10, 0x00, 0x00, 0x00, 0x10, 0x00, 0x00, 0x00,
  0x03, 0x00, 0x00, 0x00, 0x1c, 0x00, 0x00, 0x00, 0x50, 0xff, 0xff, 0xff,
  0x0f, 0x00, 0x00, 0x00, 0x61, 0x72, 0x69, 0x74, 0x68, 0x2e, 0x63, 0x6f,
  0x6e, 0x73, 0x74, 0x61, 0x6e, 0x74, 0x31, 0x00, 0x01, 0x00, 0x00, 0x00,
  0x40, 0x00, 0x00, 0x00, 0x00, 0x00, 0x16, 0x00, 0x18, 0x00, 0x14, 0x00,
  0x00, 0x00, 0x10, 0x00, 0x0c, 0x00, 0x08, 0x00, 0x00, 0x00, 0x00, 0x00,
  0x00, 0x00, 0x07, 0x00, 0x16, 0x00, 0x00, 0x00, 0x00, 0x00, 0x00, 0x01,
  0x10, 0x00, 0x00, 0x00, 0x10, 0x00, 0x00, 0x00, 0x02, 0x00, 0x00, 0x00,
  0x1c, 0x00, 0x00, 0x00, 0xa0, 0xff, 0xff, 0xff, 0x0e, 0x00, 0x00, 0x00,
  0x61, 0x72, 0x69, 0x74, 0x68, 0x2e, 0x63, 0x6f, 0x6e, 0x73, 0x74, 0x61,
  0x6e, 0x74, 0x00, 0x00, 0x01, 0x00, 0x00, 0x00, 0x20, 0x00, 0x00, 0x00,
  0x00, 0x00, 0x16, 0x00, 0x1c, 0x00, 0x18, 0x00, 0x00, 0x00, 0x14, 0x00,
  0x10, 0x00, 0x0c, 0x00, 0x00, 0x00, 0x00, 0x00, 0x08, 0x00, 0x07, 0x00,
  0x16, 0x00, 0x00, 0x00, 0x00, 0x00, 0x00, 0x01, 0x14, 0x00, 0x00, 0x00,
  0x20, 0x00, 0x00, 0x00, 0x20, 0x00, 0x00, 0x00, 0x01, 0x00, 0x00, 0x00,
  0x3c, 0x00, 0x00, 0x00, 0x02, 0x00, 0x00, 0x00, 0xff, 0xff, 0xff, 0xff,
  0x07, 0x00, 0x00, 0x00, 0x04, 0x00, 0x04, 0x00, 0x04, 0x00, 0x00, 0x00,
  0x1e, 0x00, 0x00, 0x00, 0x73, 0x65, 0x72, 0x76, 0x69, 0x6e, 0x67, 0x5f,
  0x64, 0x65, 0x66, 0x61, 0x75, 0x6c, 0x74, 0x5f, 0x68, 0x65, 0x61, 0x6c,
  0x74, 0x68, 0x5f, 0x69, 0x6e, 0x70, 0x75, 0x74, 0x3a, 0x30, 0x00, 0x00,
  0x02, 0x00, 0x00, 0x00, 0x01, 0x00, 0x00, 0x00, 0x07, 0x00, 0x00, 0x00,
  0x04, 0x00, 0x00, 0x00, 0x40, 0x00, 0x00, 0x00, 0x24, 0x00, 0x00, 0x00,
  0x14, 0x00, 0x00, 0x00, 0x04, 0x00, 0x00, 0x00, 0xdc, 0xff, 0xff, 0xff,
  0x19, 0x00, 0x00, 0x00, 0x00, 0x00, 0x00, 0x19, 0xe8, 0xff, 0xff, 0xff,
  0x09, 0x00, 0x00, 0x00, 0x00, 0x00, 0x00, 0x09, 0xf4, 0xff, 0xff, 0xff,
  0x12, 0x00, 0x00, 0x00, 0x00, 0x00, 0x00, 0x12, 0x0c, 0x00, 0x0c, 0x00,
  0x0b, 0x00, 0x00, 0x00, 0x00, 0x00, 0x04, 0x00, 0x0c, 0x00, 0x00, 0x00,
  0x29, 0x00, 0x00, 0x00, 0x00, 0x00, 0x00, 0x29
};
unsigned int health_model_float32_tflite_len = 13460;
