unsigned char model_watering[] = {
  0x1c, 0x00, 0x00, 0x00, 0x54, 0x46, 0x4c, 0x33, 0x14, 0x00, 0x20, 0x00,
  0x1c, 0x00, 0x18, 0x00, 0x14, 0x00, 0x10, 0x00, 0x0c, 0x00, 0x00, 0x00,
  0x08, 0x00, 0x04, 0x00, 0x14, 0x00, 0x00, 0x00, 0x1c, 0x00, 0x00, 0x00,
  0x8c, 0x00, 0x00, 0x00, 0xe4, 0x00, 0x00, 0x00, 0xd8, 0x0c, 0x00, 0x00,
  0xe8, 0x0c, 0x00, 0x00, 0x4c, 0x14, 0x00, 0x00, 0x03, 0x00, 0x00, 0x00,
  0x01, 0x00, 0x00, 0x00, 0x04, 0x00, 0x00, 0x00, 0xd2, 0xf2, 0xff, 0xff,
  0x0c, 0x00, 0x00, 0x00, 0x1c, 0x00, 0x00, 0x00, 0x3c, 0x00, 0x00, 0x00,
  0x0f, 0x00, 0x00, 0x00, 0x73, 0x65, 0x72, 0x76, 0x69, 0x6e, 0x67, 0x5f,
  0x64, 0x65, 0x66, 0x61, 0x75, 0x6c, 0x74, 0x00, 0x01, 0x00, 0x00, 0x00,
  0x04, 0x00, 0x00, 0x00, 0x90, 0xff, 0xff, 0xff, 0x0e, 0x00, 0x00, 0x00,
  0x04, 0x00, 0x00, 0x00, 0x08, 0x00, 0x00, 0x00, 0x6f, 0x75, 0x74, 0x70,
  0x75, 0x74, 0x5f, 0x30, 0x00, 0x00, 0x00, 0x00, 0x01, 0x00, 0x00, 0x00,
  0x04, 0x00, 0x00, 0x00, 0xea, 0xf3, 0xff, 0xff, 0x04, 0x00, 0x00, 0x00,
  0x0e, 0x00, 0x00, 0x00, 0x77, 0x61, 0x74, 0x65, 0x72, 0x69, 0x6e, 0x67,
  0x5f, 0x69, 0x6e, 0x70, 0x75, 0x74, 0x00, 0x00, 0x02, 0x00, 0x00, 0x00,
  0x34, 0x00, 0x00, 0x00, 0x04, 0x00, 0x00, 0x00, 0xdc, 0xff, 0xff, 0xff,
  0x11, 0x00, 0x00, 0x00, 0x04, 0x00, 0x00, 0x00, 0x13, 0x00, 0x00, 0x00,
  0x43, 0x4f, 0x4e, 0x56, 0x45, 0x52, 0x53, 0x49, 0x4f, 0x4e, 0x5f, 0x4d,
  0x45, 0x54, 0x41, 0x44, 0x41, 0x54, 0x41, 0x00, 0x08, 0x00, 0x0c, 0x00,
  0x08, 0x00, 0x04, 0x00, 0x08, 0x00, 0x00, 0x00, 0x10, 0x00, 0x00, 0x00,
  0x04, 0x00, 0x00, 0x00, 0x13, 0x00, 0x00, 0x00, 0x6d, 0x69, 0x6e, 0x5f,
  0x72, 0x75, 0x6e, 0x74, 0x69, 0x6d, 0x65, 0x5f, 0x76, 0x65, 0x72, 0x73,
  0x69, 0x6f, 0x6e, 0x00, 0x12, 0x00, 0x00, 0x00, 0xf0, 0x0b, 0x00, 0x00,
  0xe8, 0x0b, 0x00, 0x00, 0x98, 0x0b, 0x00, 0x00, 0x00, 0x0b, 0x00, 0x00,
  0xec, 0x0a, 0x00, 0x00, 0x9c, 0x0a, 0x00, 0x00, 0x8c, 0x02, 0x00, 0x00,
  0xfc, 0x00, 0x00, 0x00, 0xe0, 0x00, 0x00, 0x00, 0xc4, 0x00, 0x00, 0x00,
  0xbc, 0x00, 0x00, 0x00, 0xb4, 0x00, 0x00, 0x00, 0xac, 0x00, 0x00, 0x00,
  0xa4, 0x00, 0x00, 0x00, 0x9c, 0x00, 0x00, 0x00, 0x94, 0x00, 0x00, 0x00,
  0x74, 0x00, 0x00, 0x00, 0x04, 0x00, 0x00, 0x00, 0xae, 0xf4, 0xff, 0xff,
  0x04, 0x00, 0x00, 0x00, 0x60, 0x00, 0x00, 0x00, 0x10, 0x00, 0x00, 0x00,
  0x00, 0x00, 0x00, 0x00, 0x08, 0x00, 0x0e, 0x00, 0x08, 0x00, 0x04, 0x00,
  0x08, 0x00, 0x00, 0x00, 0x10, 0x00, 0x00, 0x00, 0x24, 0x00, 0x00, 0x00,
  0x00, 0x00, 0x06, 0x00, 0x08, 0x00, 0x04, 0x00, 0x06, 0x00, 0x00, 0x00,
  0x04, 0x00, 0x00, 0x00, 0x00, 0x00, 0x00, 0x00, 0x0c, 0x00, 0x18, 0x00,
  0x14, 0x00, 0x10, 0x00, 0x0c, 0x00, 0x04, 0x00, 0x0c, 0x00, 0x00, 0x00,
  0xee, 0x31, 0xeb, 0x12, 0x25, 0x3d, 0xf0, 0x98, 0x02, 0x00, 0x00, 0x00,
  0x02, 0x00, 0x00, 0x00, 0x04, 0x00, 0x00, 0x00, 0x06, 0x00, 0x00, 0x00,
  0x32, 0x2e, 0x32, 0x30, 0x2e, 0x30, 0x00, 0x00, 0x1a, 0xf5, 0xff, 0xff,
  0x04, 0x00, 0x00, 0x00, 0x10, 0x00, 0x00, 0x00, 0x31, 0x2e, 0x31, 0x34,
  0x2e, 0x30, 0x00, 0x00, 0x00, 0x00, 0x00, 0x00, 0x00, 0x00, 0x00, 0x00,
  0x9c, 0xed, 0xff, 0xff, 0xa0, 0xed, 0xff, 0xff, 0xa4, 0xed, 0xff, 0xff,
  0xa8, 0xed, 0xff, 0xff, 0xac, 0xed, 0xff, 0xff, 0xb0, 0xed, 0xff, 0xff,
  0x4e, 0xf5, 0xff, 0xff, 0x04, 0x00, 0x00, 0x00, 0x0c, 0x00, 0x00, 0x00,
  0xa0, 0x36, 0x35, 0x42, 0x20, 0x53, 0xc2, 0x41, 0xb9, 0x8a, 0x69, 0x42,
  0x66, 0xf5, 0xff, 0xff, 0x04, 0x00, 0x00, 0x00, 0x0c, 0x00, 0x00, 0x00,
  0x87, 0x41, 0x1d, 0x3d, 0x12, 0x76, 0x17, 0x3e, 0x9c, 0x2c, 0x08, 0x3d,
  0x7e, 0xf5, 0xff, 0xff, 0x04, 0x00, 0x00, 0x00, 0x80, 0x01, 0x00, 0x00,
  0x60, 0xab, 0xa8, 0x3d, 0xc2, 0x40, 0x0c, 0x3e, 0xac, 0x65, 0x36, 0x3e,
  0x70, 0xd9, 0x79, 0x3e, 0xea, 0x0d, 0x84, 0x3d, 0x7d, 0xf6, 0xbc, 0x3a,
  0x71, 0x81, 0x5e, 0x3e, 0x29, 0x92, 0x45, 0x3e, 0x50, 0xf5, 0xaa, 0x3e,
  0xe5, 0x48, 0xad, 0x3d, 0xb6, 0xb6, 0x88, 0x3e, 0x9e, 0xe1, 0xde, 0x3d,
  0x7f, 0x40, 0x1b, 0x3f, 0x26, 0xce, 0x87, 0x3d, 0xc2, 0xdd, 0xdb, 0x3d,
  0x88, 0x41, 0x27, 0x3f, 0x7e, 0x57, 0x00, 0x3c, 0x23, 0x2e, 0xc1, 0x3c,
  0xb1, 0x02, 0x29, 0xbe, 0x07, 0xe7, 0xd6, 0xbe, 0xbf, 0x7d, 0x99, 0x3e,
  0xf5, 0xe9, 0x95, 0xbe, 0x93, 0xe6, 0x9c, 0xbe, 0x37, 0x4f, 0x89, 0xbe,
  0x94, 0x7e, 0x01, 0xbf, 0xc4, 0xc8, 0x91, 0x3e, 0xc0, 0xfd, 0xae, 0x3e,
  0xe0, 0x62, 0x22, 0x3e, 0x34, 0x29, 0x9d, 0x3e, 0x61, 0xc7, 0x5e, 0x3e,
  0x01, 0xaa, 0xd6, 0x3d, 0x25, 0x65, 0xc0, 0xbe, 0x47, 0x34, 0x5d, 0x3b,
  0x34, 0x49, 0x28, 0x3f, 0xe8, 0x75, 0x16, 0x3c, 0x48, 0xbf, 0xb8, 0x3c,
  0x51, 0x2c, 0x6b, 0xbe, 0xc2, 0x7d, 0xd3, 0x3e, 0x7c, 0xc1, 0xc2, 0x3e,
  0x32, 0x8e, 0x27, 0x3e, 0x3d, 0x66, 0x88, 0xbd, 0xb8, 0x56, 0xa1, 0xbd,
  0xe5, 0xb4, 0x65, 0xbd, 0xed, 0x94, 0xa9, 0x3e, 0x6b, 0x4b, 0x8b, 0xbe,
  0xcf, 0x1f, 0xb1, 0x3e, 0x0b, 0x19, 0x62, 0x3e, 0x3a, 0x3f, 0x78, 0x3e,
  0x90, 0xad, 0x98, 0x3e, 0x4b, 0x02, 0xc5, 0xbd, 0xc0, 0x41, 0x33, 0xbe,
  0x54, 0x20, 0xd7, 0xbe, 0xda, 0xef, 0x89, 0xbe, 0xe0, 0x2d, 0x64, 0x3d,
  0x95, 0x4b, 0x8d, 0x3e, 0xac, 0xc0, 0xac, 0xbe, 0x09, 0xb7, 0x17, 0xbe,
  0xf8, 0x27, 0x4e, 0x3e, 0x5c, 0x48, 0x46, 0xbe, 0xc4, 0x04, 0x17, 0xbe,
  0x32, 0xf3, 0x04, 0xbf, 0x7e, 0xe8, 0xac, 0xbd, 0xf8, 0x73, 0xa6, 0xbd,
  0x08, 0xa0, 0x62, 0x3e, 0xf9, 0x8d, 0xa0, 0xbe, 0xe7, 0x9c, 0xce, 0xbd,
  0x14, 0xe0, 0x94, 0x3d, 0xb6, 0x9d, 0x59, 0x3e, 0x04, 0xd7, 0x7d, 0x3e,
  0xbe, 0x80, 0x1f, 0xbe, 0x8e, 0x13, 0x2a, 0x3e, 0x19, 0x41, 0xe9, 0xbd,
  0x4d, 0xfa, 0x1f, 0xbe, 0x80, 0x74, 0x69, 0x3d, 0xd3, 0xd3, 0x3b, 0x3e,
  0x3b, 0x65, 0x97, 0xbe, 0xd8, 0xc0, 0xb5, 0x3e, 0x76, 0xec, 0xa8, 0xbd,
  0x17, 0x77, 0xc5, 0xbe, 0xe9, 0x7f, 0x58, 0xbd, 0xcc, 0x6d, 0x7c, 0xbe,
  0x33, 0xb6, 0x38, 0x3f, 0x20, 0x51, 0x40, 0x3c, 0xed, 0xd6, 0xb2, 0x3c,
  0x0b, 0x58, 0x94, 0xbd, 0x80, 0x90, 0x69, 0xbe, 0xa7, 0x45, 0x93, 0x3a,
  0x91, 0x8a, 0x30, 0x3b, 0x99, 0xff, 0x6f, 0x3e, 0xa8, 0x7c, 0x59, 0xb8,
  0x70, 0x79, 0xac, 0x3e, 0x97, 0xf8, 0x59, 0x3d, 0x6f, 0x0f, 0x2b, 0xbe,
  0x89, 0x18, 0xd8, 0xbe, 0xc3, 0xc7, 0x88, 0xbc, 0x0f, 0xca, 0x6d, 0xbe,
  0x0a, 0xf7, 0xff, 0xff, 0x04, 0x00, 0x00, 0x00, 0x00, 0x08, 0x00, 0x00,
  0xbd, 0xd7, 0xe2, 0x3d, 0x46, 0xf0, 0xf1, 0x3e, 0x31, 0x62, 0x11, 0x3d,
  0x31, 0xb7, 0xbb, 0xbd, 0xbc, 0xee, 0x20, 0xbf, 0xe6, 0xa4, 0xce, 0xbf,
  0x7c, 0x26, 0x9f, 0x3e, 0x59, 0xbe, 0xd9, 0xbe, 0xf8, 0x1b, 0xc1, 0xbc,
  0x45, 0x5f, 0x36, 0xbd, 0x13, 0x75, 0x4f, 0xbe, 0xeb, 0xd7, 0xac, 0xbf,
  0xe5, 0xcf, 0x74, 0xbd, 0x7e, 0x65, 0x04, 0xbe, 0x9d, 0x59, 0xa1, 0xbd,
  0xc0, 0x58, 0xce, 0x3e, 0x6e, 0x6d, 0x08, 0x3d, 0x49, 0xd9, 0x37, 0x3e,
  0x26, 0x81, 0x37, 0xbe, 0x20, 0xe3, 0xda, 0x3e, 0xf4, 0x47, 0xb5, 0x3e,
  0x6c, 0xbc, 0x45, 0x3e, 0x68, 0xda, 0x9e, 0x3b, 0x88, 0x0b, 0x80, 0x3d,
  0xa1, 0xaf, 0x35, 0xbe, 0x89, 0x9a, 0x84, 0x3e, 0xc5, 0xbc, 0x86, 0xbe,
  0x91, 0x77, 0xaf, 0xbf, 0x55, 0xdb, 0xbb, 0x3e, 0x5d, 0x44, 0x7d, 0x3e,
  0x52, 0xfa, 0x66, 0x3e, 0x19, 0xc1, 0xb9, 0x3e, 0x06, 0x04, 0x06, 0xbe,
  0x8b, 0x1c, 0x56, 0x3e, 0x0e, 0x2f, 0x64, 0x3d, 0xc4, 0xfc, 0x10, 0x3e,
  0xa8, 0x5f, 0xbe, 0x3d, 0xf0, 0x51, 0x61, 0x3d, 0x7c, 0x47, 0x9b, 0x3e,
  0xf0, 0x4a, 0x35, 0x3e, 0xdd, 0xd3, 0x99, 0xbe, 0x6a, 0xf4, 0x72, 0x3d,
  0x8f, 0x2c, 0x80, 0x3e, 0x82, 0xbc, 0xfc, 0x3c, 0xc3, 0x0a, 0xf3, 0x3e,
  0x1d, 0x00, 0xc3, 0x3d, 0xff, 0x41, 0xa8, 0x3e, 0x01, 0x8e, 0x92, 0xbe,
  0xff, 0x5a, 0x26, 0xbe, 0x6f, 0x60, 0x9e, 0x3d, 0x73, 0x2c, 0x9c, 0x3e,
  0xab, 0x30, 0x36, 0x3d, 0xcc, 0x0a, 0x62, 0xbf, 0x70, 0xad, 0xfa, 0xbd,
  0xf5, 0x8f, 0x26, 0xbe, 0x97, 0x5a, 0x29, 0xbe, 0x6b, 0x07, 0x73, 0xbd,
  0x32, 0x81, 0xe4, 0x3d, 0x35, 0xca, 0x51, 0xbe, 0x17, 0xdd, 0xcb, 0x3e,
  0xab, 0x99, 0x0a, 0x3e, 0x49, 0xcb, 0x64, 0x3e, 0x54, 0x40, 0x9c, 0x3e,
  0x8c, 0xad, 0x5a, 0x3d, 0x4b, 0xad, 0xcf, 0xbd, 0x8b, 0xfe, 0xaa, 0x3e,
  0x50, 0x8d, 0x83, 0xbe, 0xae, 0x30, 0xb5, 0xbe, 0xba, 0xf9, 0xa1, 0xbe,
  0xdb, 0x8d, 0xe0, 0x3c, 0xfc, 0x7a, 0x51, 0x3e, 0xd5, 0xb0, 0x62, 0xbf,
  0x47, 0x21, 0x28, 0x3e, 0x2d, 0xe7, 0xd1, 0xbe, 0xe9, 0xd0, 0xca, 0xbe,
  0x76, 0x34, 0x6e, 0xbe, 0x98, 0xe4, 0xac, 0x3e, 0xa8, 0xc3, 0x8c, 0x3e,
  0x39, 0xda, 0x04, 0x3d, 0x4c, 0xde, 0xf9, 0xbd, 0xf7, 0x8c, 0xe8, 0x3d,
  0x0a, 0xf9, 0xed, 0xbc, 0x17, 0x60, 0x20, 0x3e, 0x67, 0x37, 0xa0, 0xbe,
  0x5c, 0xc5, 0x50, 0x3e, 0x39, 0xb5, 0xd0, 0xbe, 0x02, 0x4e, 0xcc, 0xbd,
  0x74, 0x2c, 0xa8, 0xbd, 0xc8, 0xec, 0x1f, 0xbd, 0x3a, 0xe7, 0x8a, 0x3e,
  0x56, 0xf6, 0x7f, 0x3e, 0x08, 0xcb, 0x7f, 0x3e, 0x50, 0x17, 0x24, 0x3e,
  0x41, 0x1a, 0xd6, 0xbe, 0xd8, 0xd5, 0x0a, 0x3f, 0x78, 0x94, 0xf6, 0xbd,
  0xf7, 0x81, 0x55, 0xbd, 0xb3, 0x7c, 0xec, 0x3d, 0x1e, 0x2c, 0xef, 0x3d,
  0xba, 0x63, 0x91, 0x3e, 0x96, 0x4b, 0x42, 0xbe, 0xc7, 0x79, 0x82, 0xbe,
  0x08, 0xf0, 0x8b, 0xbe, 0x39, 0xa6, 0xb5, 0xbe, 0xe4, 0xa3, 0x3f, 0x3e,
  0xc2, 0x00, 0xa3, 0xbe, 0xf0, 0x49, 0xc0, 0x3d, 0xca, 0x53, 0x48, 0x3e,
  0x10, 0xd9, 0xce, 0xbe, 0x77, 0x29, 0x73, 0xbd, 0x6e, 0xf0, 0x3e, 0xbe,
  0x86, 0xe9, 0xba, 0xbe, 0xf1, 0x9e, 0x92, 0x3c, 0x6c, 0xe8, 0x7b, 0xbe,
  0xd7, 0x1a, 0xa3, 0xbe, 0x81, 0x0b, 0x5f, 0x3e, 0x91, 0xa0, 0x89, 0xbe,
  0x6d, 0x96, 0x0a, 0xbe, 0x38, 0x7c, 0x03, 0xbe, 0x1a, 0x9c, 0x87, 0x3d,
  0x22, 0x43, 0x7a, 0xbe, 0xf5, 0x2f, 0x48, 0xbe, 0x2e, 0x67, 0xde, 0x3d,
  0x0b, 0x22, 0x0e, 0x3d, 0x00, 0xe2, 0x6b, 0xba, 0x8d, 0xcc, 0x58, 0x3e,
  0xf3, 0x5a, 0x7d, 0xbe, 0x4b, 0xec, 0xad, 0xbd, 0xd0, 0x83, 0xda, 0x3e,
  0xfc, 0x53, 0x8e, 0xbd, 0x6e, 0xaa, 0x2e, 0x3e, 0x7d, 0xa7, 0xcd, 0x3e,
  0x8d, 0x29, 0x32, 0xbf, 0x54, 0x12, 0x84, 0xbf, 0x76, 0x19, 0x0b, 0xbe,
  0xdc, 0xdc, 0x16, 0xbe, 0x9a, 0x09, 0xfb, 0xbb, 0x98, 0xcf, 0x2c, 0x3e,
  0x2c, 0x68, 0x27, 0xbe, 0xf0, 0xa0, 0x8a, 0xbf, 0x92, 0xd2, 0x68, 0xbe,
  0x82, 0x44, 0xfc, 0x3d, 0x4d, 0xa3, 0xd3, 0x3d, 0x7b, 0x37, 0xf1, 0x3e,
  0xa3, 0xd5, 0x8f, 0xbe, 0x84, 0x2e, 0xd9, 0x3e, 0xdc, 0x58, 0xa4, 0xbd,
  0x4d, 0x95, 0xb2, 0x3e, 0xa6, 0x7e, 0xfd, 0x3d, 0x29, 0x69, 0x46, 0x3e,
  0x0a, 0x35, 0x8d, 0x3e, 0xd4, 0xb2, 0xf1, 0x3d, 0xd5, 0x8a, 0x00, 0x3e,
  0x72, 0x94, 0xe2, 0x3d, 0x26, 0x8e, 0xfe, 0x3d, 0xe9, 0x32, 0x96, 0xbf,
  0xc4, 0xb6, 0x8c, 0xbd, 0xee, 0x2e, 0x5c, 0xbd, 0x80, 0xc0, 0x95, 0x36,
  0x66, 0x3c, 0xa5, 0x3d, 0xd3, 0x23, 0x69, 0xbe, 0x31, 0x63, 0x2d, 0xbd,
  0xc2, 0x0d, 0x52, 0xbf, 0x23, 0xcd, 0x0c, 0x3e, 0xe1, 0x85, 0x89, 0x3e,
  0x62, 0xbe, 0x72, 0x3d, 0x17, 0xd9, 0x3b, 0xbe, 0xc9, 0xac, 0x0b, 0x3e,
  0x69, 0x6f, 0xdb, 0x3e, 0xc4, 0xa2, 0x5c, 0x3e, 0x69, 0xfa, 0x0e, 0xbf,
  0x0b, 0x70, 0xd8, 0xbd, 0x34, 0xb2, 0x1b, 0xbe, 0xc8, 0x56, 0x4e, 0xbe,
  0xa9, 0x04, 0x86, 0xbc, 0x04, 0x09, 0x91, 0x3e, 0x31, 0xd3, 0x78, 0x3c,
  0x6a, 0x7b, 0x34, 0xbe, 0x32, 0x52, 0x21, 0xbf, 0x1d, 0xb4, 0x38, 0x3e,
  0x6e, 0x85, 0xa9, 0x3d, 0x9f, 0x59, 0x89, 0xbe, 0x69, 0xde, 0xf6, 0xbe,
  0x13, 0xb8, 0x69, 0xbd, 0x40, 0x38, 0x85, 0x3d, 0xd9, 0xc8, 0x4a, 0x3e,
  0xa3, 0x55, 0x3a, 0x3e, 0x21, 0x77, 0x76, 0xbd, 0x53, 0x85, 0xf3, 0x3c,
  0xdb, 0x66, 0x63, 0xbd, 0xf5, 0x1d, 0x94, 0xbd, 0xff, 0x41, 0xc6, 0xbd,
  0xb9, 0xd0, 0x8c, 0xbd, 0xc9, 0x1a, 0xa6, 0x3d, 0x89, 0x6e, 0x42, 0xbd,
  0x8a, 0xb0, 0x0f, 0xbe, 0x36, 0x09, 0x2c, 0xbd, 0xdd, 0xd5, 0x83, 0x3d,
  0xe5, 0x84, 0x49, 0xbe, 0x3d, 0xfe, 0x56, 0xbf, 0x10, 0x3a, 0x4b, 0xbf,
  0x1b, 0xd5, 0x9e, 0xbe, 0xe0, 0x97, 0xce, 0xbd, 0xbf, 0x4e, 0xce, 0x3e,
  0x3a, 0x79, 0xa7, 0xbd, 0xaa, 0x1d, 0x84, 0xbd, 0xee, 0xcf, 0x88, 0x3a,
  0x91, 0xf5, 0x91, 0x3e, 0xc5, 0x2d, 0x9b, 0x3e, 0x17, 0xd3, 0x48, 0xbf,
  0xb5, 0x73, 0x9f, 0x3e, 0x68, 0x87, 0xd4, 0x3d, 0x8f, 0x29, 0x56, 0xbe,
  0x68, 0x18, 0xb5, 0x3e, 0xbd, 0xec, 0xbf, 0x3d, 0xa8, 0x2e, 0x2c, 0xbf,
  0x63, 0xe0, 0x32, 0x3e, 0xa5, 0x41, 0x5c, 0xbf, 0x13, 0x6e, 0xaf, 0xbf,
  0x66, 0xb2, 0x56, 0xbe, 0x21, 0xbb, 0x34, 0x3d, 0x3b, 0xa1, 0x3a, 0xbe,
  0xce, 0x02, 0xe4, 0xbc, 0xba, 0xf7, 0x9a, 0xbf, 0xfd, 0xa9, 0xb3, 0xbe,
  0x0e, 0x6f, 0x13, 0x3e, 0xaf, 0xb8, 0x01, 0x3d, 0x40, 0x49, 0xab, 0xbe,
  0xd0, 0xe1, 0x96, 0xbe, 0x08, 0xd3, 0x18, 0x3e, 0xa2, 0x48, 0x05, 0xbe,
  0xce, 0x28, 0xe1, 0xbe, 0x89, 0x5b, 0x9d, 0xbf, 0xb3, 0xff, 0x8d, 0xbd,
  0x6b, 0xff, 0xb9, 0x3e, 0x66, 0xe3, 0xc2, 0x3d, 0x16, 0xe7, 0x90, 0xbe,
  0x10, 0xaa, 0x9d, 0x3e, 0x50, 0x81, 0x68, 0xbd, 0xfb, 0x5b, 0x90, 0x3e,
  0x09, 0xed, 0x19, 0x3e, 0x30, 0x83, 0xbe, 0xbe, 0x2d, 0xe9, 0x8c, 0xbd,
  0x7c, 0xfe, 0x29, 0x3e, 0xcd, 0x97, 0x9b, 0xbe, 0x7a, 0x81, 0x63, 0xbe,
  0xbd, 0x7b, 0x5b, 0x3e, 0xb9, 0xc6, 0x8b, 0xbe, 0x84, 0x05, 0xb4, 0x3d,
  0x08, 0xf3, 0x2e, 0xbf, 0xe6, 0xa5, 0x02, 0xbf, 0x16, 0xe7, 0xfe, 0x3d,
  0x75, 0xa5, 0x3a, 0xbd, 0xb2, 0x5a, 0x7b, 0xbe, 0x5d, 0xdf, 0xef, 0xbb,
  0x74, 0xf9, 0xbb, 0xbe, 0xc8, 0x24, 0xe7, 0xbd, 0xe6, 0x07, 0xbc, 0xbd,
  0x44, 0xa8, 0x91, 0xbe, 0xb4, 0x57, 0x7a, 0xbd, 0x34, 0xd2, 0x66, 0xbe,
  0xc0, 0x2a, 0x9b, 0xbe, 0x1e, 0x4c, 0xa8, 0xbe, 0x9e, 0xa9, 0x9b, 0xbd,
  0x09, 0x0c, 0x00, 0xbe, 0xfa, 0xa3, 0x90, 0x3e, 0x13, 0x14, 0x9e, 0xbe,
  0xdc, 0x9a, 0xba, 0xbe, 0xef, 0x5b, 0xb6, 0x3d, 0x88, 0x77, 0x6a, 0x3e,
  0xe6, 0x55, 0xe6, 0xbc, 0xd7, 0xe6, 0x1c, 0xbe, 0xc8, 0x3e, 0xda, 0xbd,
  0xd0, 0x10, 0xac, 0xbe, 0xc8, 0x4f, 0x00, 0xbe, 0xb2, 0xf4, 0x9c, 0x3c,
  0x88, 0xf7, 0x4e, 0xbe, 0xd7, 0xab, 0x6f, 0x3e, 0x08, 0x7e, 0x80, 0x3e,
  0x2c, 0x82, 0xcb, 0xbe, 0xbb, 0xc4, 0x8d, 0xbe, 0x6e, 0x6f, 0xd4, 0x3d,
  0xe3, 0x3e, 0x2a, 0x3e, 0x6e, 0x6e, 0x46, 0xbe, 0xa4, 0xcc, 0x9e, 0x3e,
  0xeb, 0x8d, 0x06, 0x3e, 0xc0, 0xb7, 0xa6, 0xbe, 0x79, 0x8e, 0x40, 0xbe,
  0x37, 0x61, 0x6a, 0x3e, 0x0e, 0xee, 0x6c, 0x3e, 0x95, 0x9d, 0x8d, 0x3e,
  0xe4, 0x5a, 0xa9, 0x3e, 0xa1, 0xf7, 0x57, 0xbf, 0x06, 0xdb, 0xbc, 0xbf,
  0xba, 0xc1, 0x72, 0x3d, 0x00, 0x52, 0xa6, 0xbe, 0xba, 0xed, 0x3b, 0x3e,
  0x44, 0xbf, 0x2d, 0x3e, 0x08, 0x0c, 0xaf, 0xbc, 0xdb, 0xa4, 0x5f, 0xbf,
  0x1e, 0xdb, 0x92, 0x3d, 0xf3, 0x33, 0x5f, 0x3e, 0xc3, 0x4d, 0x84, 0x3e,
  0x54, 0x28, 0x4a, 0x3e, 0xca, 0xff, 0x99, 0x3d, 0x23, 0xd5, 0x99, 0x3e,
  0x1e, 0xf1, 0x0c, 0xbe, 0xc2, 0xef, 0x3e, 0x3e, 0xb0, 0xaa, 0x48, 0x3e,
  0x84, 0x45, 0x53, 0x3e, 0x27, 0x45, 0xbc, 0xbe, 0x99, 0xd4, 0xda, 0xbd,
  0xdd, 0xdd, 0x2c, 0x3e, 0x64, 0x74, 0xe5, 0xbd, 0x69, 0x0a, 0x72, 0x3e,
  0x60, 0x02, 0x48, 0xbf, 0xaa, 0xf8, 0x40, 0xbe, 0x41, 0x11, 0x86, 0x3e,
  0x35, 0x79, 0x6b, 0xbe, 0x47, 0x6e, 0x32, 0xbc, 0x64, 0x51, 0xaa, 0x3e,
  0x1e, 0xf6, 0x88, 0x3d, 0xd1, 0x9d, 0xb3, 0x3e, 0x2e, 0x59, 0x21, 0xbe,
  0xb9, 0xf0, 0x9e, 0x3e, 0x62, 0x84, 0xe6, 0xbd, 0x20, 0x2e, 0x5d, 0xbc,
  0x21, 0x58, 0xf2, 0xbe, 0x6a, 0xc2, 0xb8, 0xbf, 0x25, 0xaf, 0x87, 0x3e,
  0x4e, 0x04, 0xf0, 0x3d, 0x7a, 0x15, 0x3b, 0x3e, 0x25, 0x7a, 0x92, 0xbe,
  0xd1, 0xf8, 0x83, 0xba, 0x30, 0x47, 0xb5, 0x3e, 0xe2, 0xe1, 0x6a, 0x3e,
  0x14, 0x31, 0xd3, 0xba, 0x54, 0x68, 0x20, 0xbf, 0xec, 0xf7, 0x00, 0x3e,
  0xce, 0x42, 0x3c, 0x3e, 0x09, 0x7f, 0x49, 0xbe, 0xab, 0xdf, 0x03, 0x3d,
  0xc8, 0x86, 0x07, 0x3e, 0xfb, 0x5f, 0x8d, 0x3b, 0x8e, 0xcc, 0x30, 0xbb,
  0x0f, 0x15, 0x02, 0xbe, 0xd7, 0xf9, 0x79, 0xbf, 0xe0, 0x46, 0xbd, 0x3b,
  0x06, 0x75, 0x76, 0xbe, 0x2e, 0x78, 0x2e, 0xbe, 0x5d, 0x78, 0x1a, 0xbd,
  0x12, 0xe1, 0x36, 0xbf, 0x46, 0x30, 0x95, 0x3c, 0x69, 0xdd, 0x1f, 0xbe,
  0x88, 0x04, 0xf3, 0x3d, 0x72, 0xa7, 0xc9, 0xbe, 0x1b, 0xce, 0x20, 0xbe,
  0x6e, 0x78, 0xca, 0xbe, 0x65, 0x0b, 0xb2, 0xbf, 0x33, 0x3c, 0x30, 0xbe,
  0xd6, 0x50, 0x12, 0xbe, 0x35, 0x58, 0xe3, 0xbe, 0xfe, 0xcd, 0x22, 0xbe,
  0xb1, 0x0f, 0x93, 0xbe, 0xed, 0x59, 0xf9, 0xbe, 0xa6, 0x40, 0x9b, 0x3d,
  0xeb, 0x24, 0x2b, 0xbe, 0x64, 0xb4, 0xf4, 0xbe, 0x87, 0xd9, 0xa9, 0x3e,
  0x79, 0xef, 0x2a, 0xbe, 0xb6, 0x56, 0xb9, 0x3d, 0x9a, 0x93, 0x63, 0x3d,
  0xf1, 0xb2, 0x53, 0xbf, 0x03, 0xa4, 0x95, 0x3e, 0x67, 0x77, 0x0b, 0xbf,
  0x5d, 0xdb, 0x30, 0x3b, 0x2b, 0xd3, 0xaa, 0x3d, 0x9a, 0x94, 0xb0, 0xbe,
  0xec, 0x72, 0x17, 0x3e, 0x09, 0x65, 0x9b, 0xbe, 0x60, 0xbd, 0xd2, 0xbe,
  0x25, 0xc9, 0x07, 0xbe, 0xa8, 0x0f, 0xc0, 0x3e, 0xe7, 0xbf, 0x60, 0x3e,
  0xc3, 0x78, 0x67, 0x3e, 0xaf, 0xc7, 0x3d, 0x3d, 0xe9, 0x61, 0x81, 0x3e,
  0x2b, 0xfa, 0xa0, 0xbe, 0x9a, 0x26, 0xe9, 0x3e, 0x6a, 0x37, 0xd3, 0x3d,
  0xb7, 0x25, 0xae, 0x3d, 0xe0, 0xd9, 0xb3, 0xbe, 0x72, 0xdb, 0xbd, 0x3e,
  0x45, 0x80, 0x83, 0x3e, 0xed, 0xa5, 0xcb, 0xbd, 0x97, 0xdf, 0x09, 0x3f,
  0xd9, 0xdd, 0xe7, 0x3e, 0x10, 0x82, 0x18, 0x3e, 0xd0, 0x3e, 0xc5, 0x3e,
  0x46, 0x2e, 0x58, 0x3c, 0x88, 0xd8, 0xe2, 0x3e, 0x44, 0xc2, 0x40, 0x3e,
  0x30, 0xb1, 0xb1, 0x3e, 0xda, 0x2d, 0x96, 0xbe, 0x40, 0x34, 0x0c, 0x3f,
  0x3c, 0x02, 0xde, 0xbe, 0x50, 0x3c, 0x1b, 0x3e, 0x70, 0x0f, 0x20, 0xbe,
  0xa9, 0x04, 0x1d, 0xbe, 0xe6, 0x06, 0xad, 0xbd, 0x05, 0x72, 0x0e, 0x3f,
  0xd7, 0x31, 0xd1, 0x3d, 0x9b, 0xe5, 0xd9, 0xbe, 0x23, 0x93, 0x8b, 0xbe,
  0xc6, 0x09, 0xbf, 0x3e, 0x7e, 0x41, 0x60, 0xbd, 0x8f, 0x29, 0xc2, 0xbd,
  0x7f, 0xb3, 0xd4, 0xbe, 0x18, 0x12, 0x81, 0x3d, 0x2a, 0x46, 0xa3, 0xbe,
  0xd5, 0x70, 0x16, 0x3e, 0xb0, 0xcd, 0x87, 0xbe, 0x5b, 0xbe, 0x28, 0xbd,
  0x8d, 0x5d, 0x0c, 0xbe, 0xe3, 0xf5, 0x47, 0x3e, 0x64, 0xeb, 0x81, 0xbf,
  0x8d, 0xa9, 0xe7, 0xbd, 0x88, 0x2b, 0x5c, 0xbe, 0x80, 0xac, 0xbe, 0xbe,
  0xf3, 0xf8, 0x47, 0xbe, 0xd7, 0x61, 0x37, 0xbf, 0x7f, 0x9d, 0x75, 0xba,
  0x52, 0xc4, 0x5c, 0xbd, 0x25, 0xeb, 0x1c, 0xbf, 0xf0, 0x4e, 0x40, 0xbe,
  0xd7, 0x8f, 0xc4, 0x3e, 0x3e, 0xed, 0x5f, 0xbe, 0x40, 0x10, 0x9d, 0x3e,
  0x70, 0xc7, 0xb8, 0xbe, 0x23, 0xc2, 0x45, 0xbf, 0x47, 0xe7, 0xe7, 0xbe,
  0x0c, 0x0d, 0x49, 0xbf, 0x64, 0xec, 0x8a, 0xbf, 0xba, 0x75, 0x9c, 0xbe,
  0x3d, 0xaa, 0x11, 0xbf, 0x42, 0x06, 0x3c, 0x3d, 0xd6, 0x81, 0x95, 0x3e,
  0x3a, 0x9c, 0x63, 0xbf, 0x37, 0xc0, 0x68, 0xbe, 0x5e, 0x8d, 0xca, 0x3b,
  0x69, 0x2e, 0x54, 0xbe, 0xdd, 0xac, 0x84, 0xbf, 0x10, 0x8d, 0x8f, 0x3e,
  0x61, 0xe9, 0x9a, 0x3e, 0xd7, 0xbf, 0xd4, 0xbd, 0xee, 0xa5, 0x59, 0xbf,
  0x6c, 0xb5, 0x96, 0x3e, 0x66, 0x37, 0xb5, 0xbd, 0x56, 0x63, 0xcc, 0xbd,
  0x57, 0x46, 0x49, 0xbe, 0x14, 0xc5, 0x32, 0x3e, 0xb9, 0xce, 0x43, 0xbe,
  0x92, 0xa2, 0xc6, 0xbe, 0xa4, 0x99, 0x91, 0xbf, 0xab, 0x2d, 0x19, 0x3e,
  0x57, 0xb7, 0xa4, 0x3e, 0x14, 0xfe, 0x6a, 0xbe, 0x12, 0x91, 0xe2, 0xbf,
  0x8c, 0xab, 0x25, 0x3d, 0xac, 0x95, 0x9a, 0xbe, 0xf1, 0x99, 0xda, 0xbd,
  0x68, 0x70, 0x98, 0x3d, 0x5b, 0x51, 0x4b, 0xbd, 0xb7, 0x81, 0x87, 0x3e,
  0xbb, 0x0c, 0x85, 0xbe, 0xb6, 0xaf, 0x7a, 0x3d, 0xac, 0x54, 0xaf, 0xbd,
  0xc3, 0x96, 0xb5, 0xbe, 0xbf, 0x2f, 0xc5, 0xbe, 0xde, 0x0f, 0x70, 0x3e,
  0x38, 0xf8, 0x5a, 0xbd, 0x34, 0xdf, 0x14, 0xbe, 0x29, 0xa4, 0xe0, 0x3e,
  0x98, 0x82, 0x71, 0x3e, 0x7e, 0x1e, 0x1c, 0x3d, 0x67, 0x94, 0x55, 0x3d,
  0x31, 0x33, 0x65, 0x3e, 0x6d, 0xbd, 0x7b, 0x3e, 0x23, 0xbf, 0x86, 0xbe,
  0x6b, 0x52, 0x80, 0x3e, 0x21, 0x4b, 0x93, 0xbe, 0x14, 0x3a, 0x6e, 0xbd,
  0xc2, 0x37, 0x87, 0xbd, 0x13, 0xd2, 0xb0, 0xbe, 0x78, 0x9e, 0xa1, 0xbd,
  0x2f, 0xed, 0x46, 0x3d, 0xa6, 0x4a, 0x24, 0xbf, 0xec, 0x1e, 0xec, 0xbd,
  0x37, 0xca, 0x89, 0xbd, 0xec, 0x37, 0xa8, 0x3c, 0x15, 0xb2, 0x2b, 0xbe,
  0xf7, 0x47, 0x8a, 0xbe, 0x8f, 0x85, 0xa9, 0x3e, 0xa9, 0xca, 0x3e, 0x3e,
  0xe5, 0x43, 0x1a, 0xbf, 0xce, 0x01, 0xb9, 0x3e, 0x04, 0x16, 0xd1, 0xbc,
  0xfb, 0x0c, 0x78, 0xbd, 0xe7, 0xb9, 0x97, 0xbe, 0xb4, 0x2a, 0xb8, 0x3c,
  0xc0, 0x09, 0xc0, 0xbc, 0x92, 0xa2, 0x7b, 0x3e, 0x16, 0xff, 0xff, 0xff,
  0x04, 0x00, 0x00, 0x00, 0x40, 0x00, 0x00, 0x00, 0xfe, 0x06, 0x2e, 0x3f,
  0xae, 0xd3, 0xf5, 0xbe, 0x53, 0x44, 0xdd, 0x3d, 0x88, 0xa3, 0xe4, 0x3d,
  0xd3, 0x72, 0x82, 0x3e, 0x29, 0x1c, 0x90, 0x3e, 0xc1, 0x2a, 0xa1, 0xbe,
  0xe9, 0x8c, 0x54, 0xbd, 0x2c, 0x92, 0xd5, 0xbe, 0x05, 0x65, 0xb7, 0x3e,
  0x4e, 0x2b, 0xe5, 0xbe, 0x86, 0x43, 0x6b, 0x3f, 0x8c, 0x89, 0x9f, 0x3e,
  0x2c, 0x0a, 0x16, 0xbf, 0xea, 0x84, 0x93, 0x3e, 0x0b, 0xbe, 0x17, 0xbe,
  0x62, 0xff, 0xff, 0xff, 0x04, 0x00, 0x00, 0x00, 0x04, 0x00, 0x00, 0x00,
  0x7c, 0xfe, 0x9d, 0xbd, 0x72, 0xff, 0xff, 0xff, 0x04, 0x00, 0x00, 0x00,
  0x80, 0x00, 0x00, 0x00, 0x40, 0x58, 0x2b, 0xbe, 0x2b, 0x32, 0x89, 0x3d,
  0x19, 0x65, 0x78, 0xbe, 0x96, 0xe8, 0xde, 0x3c, 0x37, 0x34, 0x86, 0xbe,
  0x87, 0x79, 0x86, 0xbe, 0x54, 0x5f, 0x66, 0xbd, 0xcd, 0xe7, 0x90, 0xbe,
  0x7f, 0x81, 0xf7, 0x3d, 0xf5, 0x1b, 0xe9, 0xbd, 0x16, 0xba, 0x9f, 0xbd,
  0x6e, 0xb4, 0x85, 0xbe, 0xee, 0x0a, 0x9d, 0xbd, 0x1e, 0x73, 0xf9, 0xbd,
  0x48, 0x36, 0xa1, 0xbd, 0xd9, 0x27, 0xc3, 0x3d, 0x51, 0x72, 0x84, 0xbe,
  0x3d, 0x3a, 0xc5, 0x3d, 0x64, 0x93, 0x4f, 0xbd, 0xea, 0xab, 0x77, 0x3e,
  0xc5, 0x22, 0xa9, 0xbe, 0x2a, 0x55, 0x18, 0x3e, 0xda, 0xe9, 0x23, 0xbe,
  0x12, 0x4b, 0x63, 0x3d, 0x7e, 0x09, 0x08, 0xbe, 0x70, 0x64, 0xae, 0x3d,
  0x60, 0x64, 0xc2, 0xbd, 0x8b, 0xa4, 0x94, 0xbe, 0x72, 0xc2, 0xab, 0xbd,
  0x85, 0x88, 0x2f, 0x3e, 0x38, 0x8b, 0xfb, 0xbd, 0x1a, 0x8c, 0xa5, 0xbc,
  0x00, 0x00, 0x06, 0x00, 0x08, 0x00, 0x04, 0x00, 0x06, 0x00, 0x00, 0x00,
  0x04, 0x00, 0x00, 0x00, 0x40, 0x00, 0x00, 0x00, 0x90, 0x7d, 0x4f, 0x3e,
  0xac, 0x9f, 0x3a, 0x3e, 0x2d, 0x8b, 0x45, 0xbe, 0xad, 0xc4, 0x6c, 0xbd,
  0x19, 0x5a, 0x4a, 0x3e, 0x90, 0xc1, 0xa0, 0xbd, 0x6e, 0xdb, 0xab, 0xbc,
  0xd1, 0xe4, 0x8d, 0x3d, 0x09, 0x84, 0x8e, 0xbd, 0xf5, 0x32, 0x58, 0x3e,
  0xe1, 0xc0, 0x7a, 0x3c, 0x35, 0x0e, 0x4c, 0x3e, 0x83, 0x37, 0xb2, 0xbe,
  0xa9, 0xfc, 0xf9, 0x3d, 0x52, 0x79, 0x51, 0xbe, 0xcc, 0xd1, 0x08, 0xbd,
  0xb8, 0xf8, 0xff, 0xff, 0xbc, 0xf8, 0xff, 0xff, 0x0f, 0x00, 0x00, 0x00,
  0x4d, 0x4c, 0x49, 0x52, 0x20, 0x43, 0x6f, 0x6e, 0x76, 0x65, 0x72, 0x74,
  0x65, 0x64, 0x2e, 0x00, 0x01, 0x00, 0x00, 0x00, 0x14, 0x00, 0x00, 0x00,
  0x00, 0x00, 0x0e, 0x00, 0x18, 0x00, 0x14, 0x00, 0x10, 0x00, 0x0c, 0x00,
  0x08, 0x00, 0x04, 0x00, 0x0e, 0x00, 0x00, 0x00, 0x14, 0x00, 0x00, 0x00,
  0x1c, 0x00, 0x00, 0x00, 0x98, 0x01, 0x00, 0x00, 0x9c, 0x01, 0x00, 0x00,
  0xa0, 0x01, 0x00, 0x00, 0x04, 0x00, 0x00, 0x00, 0x6d, 0x61, 0x69, 0x6e,
  0x00, 0x00, 0x00, 0x00, 0x06, 0x00, 0x00, 0x00, 0x50, 0x01, 0x00, 0x00,
  0x0c, 0x01, 0x00, 0x00, 0xb8, 0x00, 0x00, 0x00, 0x6c, 0x00, 0x00, 0x00,
  0x34, 0x00, 0x00, 0x00, 0x10, 0x00, 0x00, 0x00, 0x00, 0x00, 0x0a, 0x00,
  0x10, 0x00, 0x0c, 0x00, 0x08, 0x00, 0x04, 0x00, 0x0a, 0x00, 0x00, 0x00,
  0x0c, 0x00, 0x00, 0x00, 0x10, 0x00, 0x00, 0x00, 0x03, 0x00, 0x00, 0x00,
  0x01, 0x00, 0x00, 0x00, 0x0e, 0x00, 0x00, 0x00, 0x01, 0x00, 0x00, 0x00,
  0x0d, 0x00, 0x00, 0x00, 0x42, 0xff, 0xff, 0xff, 0x14, 0x00, 0x00, 0x00,
  0x00, 0x00, 0x00, 0x08, 0x10, 0x00, 0x00, 0x00, 0x14, 0x00, 0x00, 0x00,
  0x02, 0x00, 0x00, 0x00, 0x70, 0xf9, 0xff, 0xff, 0x01, 0x00, 0x00, 0x00,
  0x0d, 0x00, 0x00, 0x00, 0x03, 0x00, 0x00, 0x00, 0x0c, 0x00, 0x00, 0x00,
  0x04, 0x00, 0x00, 0x00, 0x03, 0x00, 0x00, 0x00, 0x76, 0xff, 0xff, 0xff,
  0x14, 0x00, 0x00, 0x00, 0x00, 0x00, 0x00, 0x08, 0x14, 0x00, 0x00, 0x00,
  0x18, 0x00, 0x00, 0x00, 0x02, 0x00, 0x00, 0x00, 0xb6, 0xff, 0xff, 0xff,
  0x00, 0x00, 0x00, 0x01, 0x01, 0x00, 0x00, 0x00, 0x0c, 0x00, 0x00, 0x00,
  0x03, 0x00, 0x00, 0x00, 0x0b, 0x00, 0x00, 0x00, 0x05, 0x00, 0x00, 0x00,
  0x01, 0x00, 0x00, 0x00, 0x00, 0x00, 0x0e, 0x00, 0x1a, 0x00, 0x14, 0x00,
  0x10, 0x00, 0x0c, 0x00, 0x0b, 0x00, 0x04, 0x00, 0x0e, 0x00, 0x00, 0x00,
  0x1c, 0x00, 0x00, 0x00, 0x00, 0x00, 0x00, 0x08, 0x1c, 0x00, 0x00, 0x00,
  0x20, 0x00, 0x00, 0x00, 0x02, 0x00, 0x00, 0x00, 0x00, 0x00, 0x06, 0x00,
  0x08, 0x00, 0x07, 0x00, 0x06, 0x00, 0x00, 0x00, 0x00, 0x00, 0x00, 0x01,
  0x01, 0x00, 0x00, 0x00, 0x0b, 0x00, 0x00, 0x00, 0x03, 0x00, 0x00, 0x00,
  0x0a, 0x00, 0x00, 0x00, 0x06, 0x00, 0x00, 0x00, 0x02, 0x00, 0x00, 0x00,
  0x00, 0x00, 0x0e, 0x00, 0x18, 0x00, 0x14, 0x00, 0x10, 0x00, 0x0c, 0x00,
  0x0b, 0x00, 0x04, 0x00, 0x0e, 0x00, 0x00, 0x00, 0x14, 0x00, 0x00, 0x00,
  0x00, 0x00, 0x00, 0x15, 0x10, 0x00, 0x00, 0x00, 0x14, 0x00, 0x00, 0x00,
  0x01, 0x00, 0x00, 0x00, 0x3c, 0xfa, 0xff, 0xff, 0x01, 0x00, 0x00, 0x00,
  0x0a, 0x00, 0x00, 0x00, 0x02, 0x00, 0x00, 0x00, 0x09, 0x00, 0x00, 0x00,
  0x07, 0x00, 0x00, 0x00, 0x00, 0x00, 0x0e, 0x00, 0x14, 0x00, 0x00, 0x00,
  0x10, 0x00, 0x0c, 0x00, 0x0b, 0x00, 0x04, 0x00, 0x0e, 0x00, 0x00, 0x00,
  0x10, 0x00, 0x00, 0x00, 0x00, 0x00, 0x00, 0x1c, 0x0c, 0x00, 0x00, 0x00,
  0x10, 0x00, 0x00, 0x00, 0x78, 0xfa, 0xff, 0xff, 0x01, 0x00, 0x00, 0x00,
  0x09, 0x00, 0x00, 0x00, 0x02, 0x00, 0x00, 0x00, 0x00, 0x00, 0x00, 0x00,
  0x08, 0x00, 0x00, 0x00, 0x01, 0x00, 0x00, 0x00, 0x0e, 0x00, 0x00, 0x00,
  0x01, 0x00, 0x00, 0x00, 0x00, 0x00, 0x00, 0x00, 0x0f, 0x00, 0x00, 0x00,
  0x34, 0x05, 0x00, 0x00, 0xe0, 0x04, 0x00, 0x00, 0x8c, 0x04, 0x00, 0x00,
  0x50, 0x04, 0x00, 0x00, 0x10, 0x04, 0x00, 0x00, 0xd0, 0x03, 0x00, 0x00,
  0x90, 0x03, 0x00, 0x00, 0x50, 0x03, 0x00, 0x00, 0x18, 0x03, 0x00, 0x00,
  0xb8, 0x02, 0x00, 0x00, 0x30, 0x02, 0x00, 0x00, 0x90, 0x01, 0x00, 0x00,
  0xf0, 0x00, 0x00, 0x00, 0x60, 0x00, 0x00, 0x00, 0x04, 0x00, 0x00, 0x00,
  0x1e, 0xfb, 0xff, 0xff, 0x00, 0x00, 0x00, 0x01, 0x14, 0x00, 0x00, 0x00,
  0x1c, 0x00, 0x00, 0x00, 0x1c, 0x00, 0x00, 0x00, 0x0f, 0x00, 0x00, 0x00,
  0x34, 0x00, 0x00, 0x00, 0x02, 0x00, 0x00, 0x00, 0xff, 0xff, 0xff, 0xff,
  0x01, 0x00, 0x00, 0x00, 0x08, 0xfb, 0xff, 0xff, 0x1b, 0x00, 0x00, 0x00,
  0x53, 0x74, 0x61, 0x74, 0x65, 0x66, 0x75, 0x6c, 0x50, 0x61, 0x72, 0x74,
  0x69, 0x74, 0x69, 0x6f, 0x6e, 0x65, 0x64, 0x43, 0x61, 0x6c, 0x6c, 0x5f,
  0x31, 0x3a, 0x30, 0x00, 0x02, 0x00, 0x00, 0x00, 0x01, 0x00, 0x00, 0x00,
  0x01, 0x00, 0x00, 0x00, 0x76, 0xfb, 0xff, 0xff, 0x00, 0x00, 0x00, 0x01,
  0x14, 0x00, 0x00, 0x00, 0x1c, 0x00, 0x00, 0x00, 0x1c, 0x00, 0x00, 0x00,
  0x0e, 0x00, 0x00, 0x00, 0x68, 0x00, 0x00, 0x00, 0x02, 0x00, 0x00, 0x00,
  0xff, 0xff, 0xff, 0xff, 0x01, 0x00, 0x00, 0x00, 0x60, 0xfb, 0xff, 0xff,
  0x4c, 0x00, 0x00, 0x00, 0x73, 0x65, 0x71, 0x75, 0x65, 0x6e, 0x74, 0x69,
  0x61, 0x6c, 0x5f, 0x34, 0x5f, 0x31, 0x2f, 0x77, 0x61, 0x74, 0x65, 0x72,
  0x69, 0x6e, 0x67, 0x5f, 0x6f, 0x75, 0x74, 0x70, 0x75, 0x74, 0x5f, 0x31,
  0x2f, 0x4d, 0x61, 0x74, 0x4d, 0x75, 0x6c, 0x3b, 0x73, 0x65, 0x71, 0x75,
  0x65, 0x6e, 0x74, 0x69, 0x61, 0x6c, 0x5f, 0x34, 0x5f, 0x31, 0x2f, 0x77,
  0x61, 0x74, 0x65, 0x72, 0x69, 0x6e, 0x67, 0x5f, 0x6f, 0x75, 0x74, 0x70,
  0x75, 0x74, 0x5f, 0x31, 0x2f, 0x41, 0x64, 0x64, 0x00, 0x00, 0x00, 0x00,
  0x02, 0x00, 0x00, 0x00, 0x01, 0x00, 0x00, 0x00, 0x01, 0x00, 0x00, 0x00,
  0x02, 0xfc, 0xff, 0xff, 0x00, 0x00, 0x00, 0x01, 0x14, 0x00, 0x00, 0x00,
  0x1c, 0x00, 0x00, 0x00, 0x1c, 0x00, 0x00, 0x00, 0x0d, 0x00, 0x00, 0x00,
  0x78, 0x00, 0x00, 0x00, 0x02, 0x00, 0x00, 0x00, 0xff, 0xff, 0xff, 0xff,
  0x10, 0x00, 0x00, 0x00, 0xec, 0xfb, 0xff, 0xff, 0x5e, 0x00, 0x00, 0x00,
  0x73, 0x65, 0x71, 0x75, 0x65, 0x6e, 0x74, 0x69, 0x61, 0x6c, 0x5f, 0x34,
  0x5f, 0x31, 0x2f, 0x64, 0x65, 0x6e, 0x73, 0x65, 0x5f, 0x39, 0x5f, 0x31,
  0x2f, 0x4d, 0x61, 0x74, 0x4d, 0x75, 0x6c, 0x3b, 0x73, 0x65, 0x71, 0x75,
  0x65, 0x6e, 0x74, 0x69, 0x61, 0x6c, 0x5f, 0x34, 0x5f, 0x31, 0x2f, 0x64,
  0x65, 0x6e, 0x73, 0x65, 0x5f, 0x39, 0x5f, 0x31, 0x2f, 0x52, 0x65, 0x6c,
  0x75, 0x3b, 0x73, 0x65, 0x71, 0x75, 0x65, 0x6e, 0x74, 0x69, 0x61, 0x6c,
  0x5f, 0x34, 0x5f, 0x31, 0x2f, 0x64, 0x65, 0x6e, 0x73, 0x65, 0x5f, 0x39,
  0x5f, 0x31, 0x2f, 0x42, 0x69, 0x61, 0x73, 0x41, 0x64, 0x64, 0x00, 0x00,
  0x02, 0x00, 0x00, 0x00, 0x01, 0x00, 0x00, 0x00, 0x10, 0x00, 0x00, 0x00,
  0x9e, 0xfc, 0xff, 0xff, 0x00, 0x00, 0x00, 0x01, 0x14, 0x00, 0x00, 0x00,
  0x1c, 0x00, 0x00, 0x00, 0x1c, 0x00, 0x00, 0x00, 0x0c, 0x00, 0x00, 0x00,
  0x78, 0x00, 0x00, 0x00, 0x02, 0x00, 0x00, 0x00, 0xff, 0xff, 0xff, 0xff,
  0x20, 0x00, 0x00, 0x00, 0x88, 0xfc, 0xff, 0xff, 0x5e, 0x00, 0x00, 0x00,
  0x73, 0x65, 0x71, 0x75, 0x65, 0x6e, 0x74, 0x69, 0x61, 0x6c, 0x5f, 0x34,
  0x5f, 0x31, 0x2f, 0x64, 0x65, 0x6e, 0x73, 0x65, 0x5f, 0x38, 0x5f, 0x31,
  0x2f, 0x4d, 0x61, 0x74, 0x4d, 0x75, 0x6c, 0x3b, 0x73, 0x65, 0x71, 0x75,
  0x65, 0x6e, 0x74, 0x69, 0x61, 0x6c, 0x5f, 0x34, 0x5f, 0x31, 0x2f, 0x64,
  0x65, 0x6e, 0x73, 0x65, 0x5f, 0x38, 0x5f, 0x31, 0x2f, 0x52, 0x65, 0x6c,
  0x75, 0x3b, 0x73, 0x65, 0x71, 0x75, 0x65, 0x6e, 0x74, 0x69, 0x61, 0x6c,
  0x5f, 0x34, 0x5f, 0x31, 0x2f, 0x64, 0x65, 0x6e, 0x73, 0x65, 0x5f, 0x38,
  0x5f, 0x31, 0x2f, 0x42, 0x69, 0x61, 0x73, 0x41, 0x64, 0x64, 0x00, 0x00,
  0x02, 0x00, 0x00, 0x00, 0x01, 0x00, 0x00, 0x00, 0x20, 0x00, 0x00, 0x00,
  0x3a, 0xfd, 0xff, 0xff, 0x00, 0x00, 0x00, 0x01, 0x14, 0x00, 0x00, 0x00,
  0x1c, 0x00, 0x00, 0x00, 0x1c, 0x00, 0x00, 0x00, 0x0b, 0x00, 0x00, 0x00,
  0x60, 0x00, 0x00, 0x00, 0x02, 0x00, 0x00, 0x00, 0xff, 0xff, 0xff, 0xff,
  0x03, 0x00, 0x00, 0x00, 0x24, 0xfd, 0xff, 0xff, 0x47, 0x00, 0x00, 0x00,
  0x73, 0x65, 0x71, 0x75, 0x65, 0x6e, 0x74, 0x69, 0x61, 0x6c, 0x5f, 0x34,
  0x5f, 0x31, 0x2f, 0x77, 0x61, 0x74, 0x65, 0x72, 0x5f, 0x6e, 0x6f, 0x72,
  0x6d, 0x5f, 0x31, 0x2f, 0x74, 0x72, 0x75, 0x65, 0x64, 0x69, 0x76, 0x3b,
  0x73, 0x65, 0x71, 0x75, 0x65, 0x6e, 0x74, 0x69, 0x61, 0x6c, 0x5f, 0x34,
  0x5f, 0x31, 0x2f, 0x77, 0x61, 0x74, 0x65, 0x72, 0x5f, 0x6e, 0x6f, 0x72,
  0x6d, 0x5f, 0x31, 0x2f, 0x4d, 0x61, 0x78, 0x69, 0x6d, 0x75, 0x6d, 0x00,
  0x02, 0x00, 0x00, 0x00, 0x01, 0x00, 0x00, 0x00, 0x03, 0x00, 0x00, 0x00,
  0xbe, 0xfd, 0xff, 0xff, 0x00, 0x00, 0x00, 0x01, 0x14, 0x00, 0x00, 0x00,
  0x1c, 0x00, 0x00, 0x00, 0x1c, 0x00, 0x00, 0x00, 0x0a, 0x00, 0x00, 0x00,
  0x38, 0x00, 0x00, 0x00, 0x02, 0x00, 0x00, 0x00, 0xff, 0xff, 0xff, 0xff,
  0x03, 0x00, 0x00, 0x00, 0xa8, 0xfd, 0xff, 0xff, 0x1f, 0x00, 0x00, 0x00,
  0x73, 0x65, 0x71, 0x75, 0x65, 0x6e, 0x74, 0x69, 0x61, 0x6c, 0x5f, 0x34,
  0x5f, 0x31, 0x2f, 0x77, 0x61, 0x74, 0x65, 0x72, 0x5f, 0x6e, 0x6f, 0x72,
  0x6d, 0x5f, 0x31, 0x2f, 0x53, 0x75, 0x62, 0x00, 0x02, 0x00, 0x00, 0x00,
  0x01, 0x00, 0x00, 0x00, 0x03, 0x00, 0x00, 0x00, 0x6a, 0xfe, 0xff, 0xff,
  0x00, 0x00, 0x00, 0x01, 0x10, 0x00, 0x00, 0x00, 0x10, 0x00, 0x00, 0x00,
  0x09, 0x00, 0x00, 0x00, 0x14, 0x00, 0x00, 0x00, 0xf4, 0xfd, 0xff, 0xff,
  0x07, 0x00, 0x00, 0x00, 0x43, 0x6f, 0x6e, 0x73, 0x74, 0x5f, 0x31, 0x00,
  0x02, 0x00, 0x00, 0x00, 0x01, 0x00, 0x00, 0x00, 0x03, 0x00, 0x00, 0x00,
  0x9e, 0xfe, 0xff, 0xff, 0x00, 0x00, 0x00, 0x01, 0x10, 0x00, 0x00, 0x00,
  0x10, 0x00, 0x00, 0x00, 0x08, 0x00, 0x00, 0x00, 0x1c, 0x00, 0x00, 0x00,
  0x28, 0xfe, 0xff, 0xff, 0x0f, 0x00, 0x00, 0x00, 0x61, 0x72, 0x69, 0x74,
  0x68, 0x2e, 0x63, 0x6f, 0x6e, 0x73, 0x74, 0x61, 0x6e, 0x74, 0x36, 0x00,
  0x02, 0x00, 0x00, 0x00, 0x01, 0x00, 0x00, 0x00, 0x03, 0x00, 0x00, 0x00,
  0xda, 0xfe, 0xff, 0xff, 0x00, 0x00, 0x00, 0x01, 0x10, 0x00, 0x00, 0x00,
  0x10, 0x00, 0x00, 0x00, 0x07, 0x00, 0x00, 0x00, 0x1c, 0x00, 0x00, 0x00,
  0x64, 0xfe, 0xff, 0xff, 0x0f, 0x00, 0x00, 0x00, 0x61, 0x72, 0x69, 0x74,
  0x68, 0x2e, 0x63, 0x6f, 0x6e, 0x73, 0x74, 0x61, 0x6e, 0x74, 0x35, 0x00,
  0x02, 0x00, 0x00, 0x00, 0x20, 0x00, 0x00, 0x00, 0x03, 0x00, 0x00, 0x00,
  0x16, 0xff, 0xff, 0xff, 0x00, 0x00, 0x00, 0x01, 0x10, 0x00, 0x00, 0x00,
  0x10, 0x00, 0x00, 0x00, 0x06, 0x00, 0x00, 0x00, 0x1c, 0x00, 0x00, 0x00,
  0xa0, 0xfe, 0xff, 0xff, 0x0f, 0x00, 0x00, 0x00, 0x61, 0x72, 0x69, 0x74,
  0x68, 0x2e, 0x63, 0x6f, 0x6e, 0x73, 0x74, 0x61, 0x6e, 0x74, 0x34, 0x00,
  0x02, 0x00, 0x00, 0x00, 0x10, 0x00, 0x00, 0x00, 0x20, 0x00, 0x00, 0x00,
  0x52, 0xff, 0xff, 0xff, 0x00, 0x00, 0x00, 0x01, 0x10, 0x00, 0x00, 0x00,
  0x10, 0x00, 0x00, 0x00, 0x05, 0x00, 0x00, 0x00, 0x1c, 0x00, 0x00, 0x00,
  0xdc, 0xfe, 0xff, 0xff, 0x0f, 0x00, 0x00, 0x00, 0x61, 0x72, 0x69, 0x74,
  0x68, 0x2e, 0x63, 0x6f, 0x6e, 0x73, 0x74, 0x61, 0x6e, 0x74, 0x33, 0x00,
  0x02, 0x00, 0x00, 0x00, 0x01, 0x00, 0x00, 0x00, 0x10, 0x00, 0x00, 0x00,
  0x8e, 0xff, 0xff, 0xff, 0x00, 0x00, 0x00, 0x01, 0x10, 0x00, 0x00, 0x00,
  0x10, 0x00, 0x00, 0x00, 0x04, 0x00, 0x00, 0x00, 0x1c, 0x00, 0x00, 0x00,
  0x18, 0xff, 0xff, 0xff, 0x0f, 0x00, 0x00, 0x00, 0x61, 0x72, 0x69, 0x74,
  0x68, 0x2e, 0x63, 0x6f, 0x6e, 0x73, 0x74, 0x61, 0x6e, 0x74, 0x32, 0x00,
  0x01, 0x00, 0x00, 0x00, 0x01, 0x00, 0x00, 0x00, 0xc6, 0xff, 0xff, 0xff,
  0x00, 0x00, 0x00, 0x01, 0x10, 0x00, 0x00, 0x00, 0x10, 0x00, 0x00, 0x00,
  0x03, 0x00, 0x00, 0x00, 0x1c, 0x00, 0x00, 0x00, 0x50, 0xff, 0xff, 0xff,
  0x0f, 0x00, 0x00, 0x00, 0x61, 0x72, 0x69, 0x74, 0x68, 0x2e, 0x63, 0x6f,
  0x6e, 0x73, 0x74, 0x61, 0x6e, 0x74, 0x31, 0x00, 0x01, 0x00, 0x00, 0x00,
  0x20, 0x00, 0x00, 0x00, 0x00, 0x00, 0x16, 0x00, 0x18, 0x00, 0x14, 0x00,
  0x00, 0x00, 0x10, 0x00, 0x0c, 0x00, 0x08, 0x00, 0x00, 0x00, 0x00, 0x00,
  0x00, 0x00, 0x07, 0x00, 0x16, 0x00, 0x00, 0x00, 0x00, 0x00, 0x00, 0x01,
  0x10, 0x00, 0x00, 0x00, 0x10, 0x00, 0x00, 0x00, 0x02, 0x00, 0x00, 0x00,
  0x1c, 0x00, 0x00, 0x00, 0xa0, 0xff, 0xff, 0xff, 0x0e, 0x00, 0x00, 0x00,
  0x61, 0x72, 0x69, 0x74, 0x68, 0x2e, 0x63, 0x6f, 0x6e, 0x73, 0x74, 0x61,
  0x6e, 0x74, 0x00, 0x00, 0x01, 0x00, 0x00, 0x00, 0x10, 0x00, 0x00, 0x00,
  0x00, 0x00, 0x16, 0x00, 0x1c, 0x00, 0x18, 0x00, 0x00, 0x00, 0x14, 0x00,
  0x10, 0x00, 0x0c, 0x00, 0x00, 0x00, 0x00, 0x00, 0x08, 0x00, 0x07, 0x00,
  0x16, 0x00, 0x00, 0x00, 0x00, 0x00, 0x00, 0x01, 0x14, 0x00, 0x00, 0x00,
  0x20, 0x00, 0x00, 0x00, 0x20, 0x00, 0x00, 0x00, 0x01, 0x00, 0x00, 0x00,
  0x40, 0x00, 0x00, 0x00, 0x02, 0x00, 0x00, 0x00, 0xff, 0xff, 0xff, 0xff,
  0x03, 0x00, 0x00, 0x00, 0x04, 0x00, 0x04, 0x00, 0x04, 0x00, 0x00, 0x00,
  0x20, 0x00, 0x00, 0x00, 0x73, 0x65, 0x72, 0x76, 0x69, 0x6e, 0x67, 0x5f,
  0x64, 0x65, 0x66, 0x61, 0x75, 0x6c, 0x74, 0x5f, 0x77, 0x61, 0x74, 0x65,
  0x72, 0x69, 0x6e, 0x67, 0x5f, 0x69, 0x6e, 0x70, 0x75, 0x74, 0x3a, 0x30,
  0x00, 0x00, 0x00, 0x00, 0x02, 0x00, 0x00, 0x00, 0x01, 0x00, 0x00, 0x00,
  0x03, 0x00, 0x00, 0x00, 0x04, 0x00, 0x00, 0x00, 0x40, 0x00, 0x00, 0x00,
  0x24, 0x00, 0x00, 0x00, 0x14, 0x00, 0x00, 0x00, 0x04, 0x00, 0x00, 0x00,
  0xdc, 0xff, 0xff, 0xff, 0x0e, 0x00, 0x00, 0x00, 0x00, 0x00, 0x00, 0x0e,
  0xe8, 0xff, 0xff, 0xff, 0x09, 0x00, 0x00, 0x00, 0x00, 0x00, 0x00, 0x09,
  0xf4, 0xff, 0xff, 0xff, 0x12, 0x00, 0x00, 0x00, 0x00, 0x00, 0x00, 0x12,
  0x0c, 0x00, 0x0c, 0x00, 0x0b, 0x00, 0x00, 0x00, 0x00, 0x00, 0x04, 0x00,
  0x0c, 0x00, 0x00, 0x00, 0x29, 0x00, 0x00, 0x00, 0x00, 0x00, 0x00, 0x29
};
unsigned int watering_model_float32_tflite_len = 5328;
